{
  "vocab_size": 5000,
  "token_to_index": {
    "<UNK>": 0,
    " ": 1,
    "ँ": 2,
    "ं": 3,
    "ः": 4,
    "अ": 5,
    "आ": 6,
    "इ": 7,
    "ई": 8,
    "उ": 9,
    "ऊ": 10,
    "ऋ": 11,
    "ऍ": 12,
    "ऎ": 13,
    "ए": 14,
    "ऐ": 15,
    "ऑ": 16,
    "ऒ": 17,
    "ओ": 18,
    "औ": 19,
    "क": 20,
    "ख": 21,
    "ग": 22,
    "घ": 23,
    "ङ": 24,
    "च": 25,
    "छ": 26,
    "ज": 27,
    "झ": 28,
    "ञ": 29,
    "ट": 30,
    "ठ": 31,
    "ड": 32,
    "ढ": 33,
    "ण": 34,
    "त": 35,
    "थ": 36,
    "द": 37,
    "ध": 38,
    "न": 39,
    "ऩ": 40,
    "प": 41,
    "फ": 42,
    "ब": 43,
    "भ": 44,
    "म": 45,
    "य": 46,
    "र": 47,
    "ऱ": 48,
    "ल": 49,
    "ळ": 50,
    "व": 51,
    "श": 52,
    "ष": 53,
    "स": 54,
    "ह": 55,
    "़": 56,
    "ऽ": 57,
    "ा": 58,
    "ि": 59,
    "ी": 60,
    "ु": 61,
    "ू": 62,
    "ृ": 63,
    "ॄ": 64,
    "ॅ": 65,
    "ॆ": 66,
    "े": 67,
    "ै": 68,
    "ॉ": 69,
    "ॊ": 70,
    "ो": 71,
    "ौ": 72,
    "्": 73,
    "ॐ": 74,
    "॑": 75,
    "॒": 76,
    "॔": 77,
    "क़": 78,
    "ख़": 79,
    "ग़": 80,
    "ज़": 81,
    "ड़": 82,
    "ढ़": 83,
    "फ़": 84,
    "य़": 85,
    "ॢ": 86,
    "॥": 87,
    "०": 88,
    "१": 89,
    "२": 90,
    "३": 91,
    "४": 92,
    "५": 93,
    "६": 94,
    "७": 95,
    "८": 96,
    "९": 97,
    "॰": 98,
    "ॲ": 99,
    "ॽ": 100,
    " क": 101,
    "े ": 102,
    "ी ": 103,
    "ा ": 104,
    "र ": 105,
    "ं ": 106,
    " के ": 107,
    "है": 108,
    "मे": 109,
    "्र": 110,
    " स": 111,
    "ार": 112,
    "में ": 113,
    "ो ": 114,
    "ान": 115,
    "्य": 116,
    "ने ": 117,
    "िय": 118,
    " की ": 119,
    " प": 120,
    "र्": 121,
    "ाल": 122,
    "क ": 123,
    "स्": 124,
    "न ": 125,
    "ों": 126,
    "त ": 127,
    " को ": 128,
    "से ": 129,
    "ि ": 130,
    "ने": 131,
    "स ": 132,
    "ा क": 133,
    "और ": 134,
    "वि": 135,
    "क्": 136,
    "िल": 137,
    "ा है": 138,
    "रा": 139,
    "ए ": 140,
    " का ": 141,
    "ार ": 142,
    "लि": 143,
    " कर": 144,
    "रह": 145,
    "ों ": 146,
    "दे": 147,
    "ाय": 148,
    "ां": 149,
    "ाम": 150,
    " में ": 151,
    "प्र": 152,
    "ात": 153,
    "भी ": 154,
    " ह": 155,
    "िक": 156,
    "ही": 157,
    "ाद": 158,
    "ले": 159,
    "ड़": 160,
    "ल ": 161,
    "ई ": 162,
    "न्": 163,
    "ंग": 164,
    " से ": 165,
    "सक": 166,
    "ह ": 167,
    "ना ": 168,
    "हु": 169,
    "ी क": 170,
    "ोग": 171,
    "ते ": 172,
    "त्": 173,
    "िया ": 174,
    "म ": 175,
    "ी है": 176,
    "नि": 177,
    "मु": 178,
    "पर ": 179,
    "वा": 180,
    "ला": 181,
    "ंद": 182,
    "ता ": 183,
    "नही": 184,
    "े क": 185,
    "ना": 186,
    "सा": 187,
    " ज": 188,
    "अप": 189,
    "क्ष": 190,
    " के लि": 191,
    "ति": 192,
    "्ट": 193,
    "हैं": 194,
    " ब": 195,
    "त्र": 196,
    " म": 197,
    "ले ": 198,
    "ता": 199,
    " प्र": 200,
    "दि": 201,
    "नहीं ": 202,
    "कर ": 203,
    "एक ": 204,
    "रि": 205,
    "हा": 206,
    " को": 207,
    "लग": 208,
    "हो": 209,
    "ुर": 210,
    "वाल": 211,
    "ही ": 212,
    "इस": 213,
    "भा": 214,
    " पर ": 215,
    "गय": 216,
    "इस ": 217,
    "देश": 218,
    " कर ": 219,
    " के ब": 220,
    "द्": 221,
    "ान ": 222,
    "नी ": 223,
    "मा": 224,
    "ित": 225,
    "िया": 226,
    " के लिए ": 227,
    "ने क": 228,
    "ब ": 229,
    "कि": 230,
    "वार": 231,
    "सं": 232,
    "ती": 233,
    "न्ह": 234,
    "आप": 235,
    "व ": 236,
    "ं क": 237,
    "नक": 238,
    "ंड": 239,
    "रो": 240,
    "बा": 241,
    "तो ": 242,
    "री": 243,
    "जि": 244,
    "ट ": 245,
    "राज": 246,
    "रे": 247,
    "ता है": 248,
    "्म": 249,
    "सी ": 250,
    "य ": 251,
    "कार": 252,
    " कि ": 253,
    "उन्ह": 254,
    "साथ": 255,
    "ा कि ": 256,
    "री ": 257,
    "हि": 258,
    "जा": 259,
    "र क": 260,
    "ली ": 261,
    "हैं ": 262,
    "सी": 263,
    "ों को ": 264,
    "ल्": 265,
    "ें ": 266,
    "भार": 267,
    "सम": 268,
    "स्थ": 269,
    "अध": 270,
    "पा": 271,
    "ग्र": 272,
    "पू": 273,
    "ों के ": 274,
    "स्त": 275,
    "नी": 276,
    "जा ": 277,
    "अन": 278,
    "जी": 279,
    " और ": 280,
    "श्": 281,
    "स्ट": 282,
    "ंत्र": 283,
    "सि": 284,
    "लोग": 285,
    "ों में ": 286,
    "सर": 287,
    "सके ": 288,
    "उनक": 289,
    "यह ": 290,
    "्या": 291,
    " कि": 292,
    "जान": 293,
    "वे": 294,
    "पु": 295,
    "रू": 296,
    "ित ": 297,
    "चु": 298,
    "ज ": 299,
    "ों की ": 300,
    "वर्": 301,
    "चा": 302,
    "मार": 303,
    " स्": 304,
    "शि": 305,
    "च्": 306,
    "ला ": 307,
    "पी": 308,
    "टी": 309,
    "अपने ": 310,
    "में क": 311,
    "के ": 312,
    "पह": 313,
    "से": 314,
    "ण ": 315,
    "वी": 316,
    "था": 317,
    "प्": 318,
    "ढ़": 319,
    "था ": 320,
    "मिल": 321,
    "ने कह": 322,
    "दी ": 323,
    "का": 324,
    "रहे ": 325,
    "मान": 326,
    " सं": 327,
    "या ": 328,
    "मै": 329,
    "हो ": 330,
    "ाद ": 331,
    "ंट": 332,
    "ली": 333,
    "सु": 334,
    "िक ": 335,
    "ये ": 336,
    "ती है": 337,
    "मह": 338,
    "द ": 339,
    "ष्ट": 340,
    "उन्हों": 341,
    "रु": 342,
    "ति ": 343,
    "एक": 344,
    "र में ": 345,
    "बी": 346,
    "दू": 347,
    "गा": 348,
    "जात": 349,
    "्या ": 350,
    "मो": 351,
    "कार ": 352,
    "लेकि": 353,
    "ंच": 354,
    "्य ": 355,
    "र्म": 356,
    "मंत्र": 357,
    " किया ": 358,
    "दो": 359,
    "दी": 360,
    "जन": 361,
    "ने वाल": 362,
    "बे": 363,
    "ती ": 364,
    "िल्": 365,
    " के साथ": 366,
    "िला": 367,
    "्री": 368,
    " हो": 369,
    "म्": 370,
    "ारी ": 371,
    "ुछ": 372,
    "के": 373,
    " करने": 374,
    "कि ": 375,
    " अ": 376,
    " सि": 377,
    "उप": 378,
    "जे": 379,
    "ार्": 380,
    "ार्य": 381,
    "मि": 382,
    "ते हैं": 383,
    "ंप": 384,
    "देख": 385,
    "मुख": 386,
    "ाने": 387,
    "ब्": 388,
    "लेकिन ": 389,
    "च ": 390,
    "ाल ": 391,
    "बत": 392,
    "व्य": 393,
    "ंध": 394,
    "ाया ": 395,
    "दर्": 396,
    "रे ": 397,
    "हां ": 398,
    "मी": 399,
    "गु": 400,
    "थी": 401,
    "फि": 402,
    "लो": 403,
    "धान": 404,
    "रा ": 405,
    "तक ": 406,
    "है ": 407,
    "रख": 408,
    "ट्र": 409,
    "ंक": 410,
    "सा ": 411,
    "ाने ": 412,
    "ंब": 413,
    "वा ": 414,
    "क्र": 415,
    "दु": 416,
    "मौ": 417,
    "टे": 418,
    "िया है": 419,
    "सू": 420,
    "ते": 421,
    "अनु": 422,
    "इसके ": 423,
    "योग": 424,
    "रहा है": 425,
    "्र ": 426,
    "हुए ": 427,
    "  ": 428,
    "अपनी ": 429,
    " सम": 430,
    "ओं": 431,
    "शा": 432,
    "बै": 433,
    "शन": 434,
    "ोट": 435,
    "ों का ": 436,
    "पे": 437,
    "एस": 438,
    "गर ": 439,
    "जी ": 440,
    "रही है": 441,
    "ानी ": 442,
    "दौ": 443,
    " के लिए": 444,
    "ों ने ": 445,
    "बि": 446,
    "बन": 447,
    "प ": 448,
    "आ ": 449,
    "ों से ": 450,
    "वह ": 451,
    "ोड़": 452,
    "यह": 453,
    "श ": 454,
    "यु": 455,
    "जाए": 456,
    "गया है": 457,
    "माम": 458,
    "अधिक": 459,
    "तक": 460,
    "मंत्री ": 461,
    "चि": 462,
    "निय": 463,
    "दिया ": 464,
    "नाम": 465,
    "गी": 466,
    "गई ": 467,
    "रुप": 468,
    " ही ": 469,
    "तरह": 470,
    "निर्": 471,
    "फ ": 472,
    "दा": 473,
    "तर": 474,
    "उन्होंने ": 475,
    "आई": 476,
    "हम": 477,
    "होग": 478,
    "ध्य": 479,
    "हर ": 480,
    "ा कि": 481,
    "ोर्": 482,
    "यो": 483,
    "डि": 484,
    "ड ": 485,
    "्ष": 486,
    "ाना ": 487,
    " हो ": 488,
    "द्ध": 489,
    "वे ": 490,
    " सु": 491,
    "यू": 492,
    "आपक": 493,
    "पहले ": 494,
    "थे": 495,
    "्यू": 496,
    "जब": 497,
    "बात": 498,
    "ाइ": 499,
    "पि": 500,
    "ते हैं ": 501,
    "श्र": 502,
    "बार ": 503,
    " सक": 504,
    "उत्": 505,
    "जु": 506,
    "शे": 507,
    "रण": 508,
    "च्च": 509,
    "जू": 510,
    "ार्ट": 511,
    "ी के ": 512,
    "उस": 513,
    "द्वार": 514,
    "ें": 515,
    "तु": 516,
    "तर ": 517,
    " के": 518,
    "खु": 519,
    "गया ": 520,
    "बंध": 521,
    "पूर्": 522,
    "लेकर ": 523,
    "उनके ": 524,
    "शुर": 525,
    "ष्": 526,
    "ग ": 527,
    "गां": 528,
    "ग्रे": 529,
    " के क": 530,
    "क्ट": 531,
    "न में ": 532,
    "ज़": 533,
    "ा कर": 534,
    "र से ": 535,
    "ने कहा कि ": 536,
    "ांच": 537,
    "ने की ": 538,
    "टी ": 539,
    "हाल": 540,
    "ा का ": 541,
    " कह": 542,
    "ों पर ": 543,
    "ारे ": 544,
    " सा": 545,
    " सर": 546,
    "जो ": 547,
    "ोल": 548,
    "चुना": 549,
    "या": 550,
    "डी": 551,
    "चल": 552,
    "परि": 553,
    "पुलि": 554,
    "पर": 555,
    "चार": 556,
    "रूप": 557,
    "त्य": 558,
    "सब": 559,
    "निक": 560,
    "थी ": 561,
    "साम": 562,
    "ज्": 563,
    "पी ": 564,
    "त्र ": 565,
    "उन्हें ": 566,
    "खिला": 567,
    "हे": 568,
    "खे": 569,
    "ची": 570,
    "से क": 571,
    "गया": 572,
    "ुछ ": 573,
    "राष्ट": 574,
    " कु": 575,
    "गि": 576,
    " के बाद ": 577,
    "शु": 578,
    "अं": 579,
    "ंह ": 580,
    "गे": 581,
    "वाद": 582,
    "भी क": 583,
    "बहु": 584,
    "वर्ष": 585,
    "ा में ": 586,
    "च्छ": 587,
    "लिए ": 588,
    "सो": 589,
    "द्वारा ": 590,
    "दौर": 591,
    "गए ": 592,
    "ैसे ": 593,
    "बाद": 594,
    "हर": 595,
    "हुंच": 596,
    "ांग्रे": 597,
    " से": 598,
    "दिल्": 599,
    "अब ": 600,
    "स्क": 601,
    "वार ": 602,
    "राज्य": 603,
    "जो": 604,
    "ात्र": 605,
    "इन ": 606,
    "त में ": 607,
    "दिन": 608,
    "ंगे": 609,
    "र पर ": 610,
    "द्य": 611,
    "विध": 612,
    "हन": 613,
    "दो ": 614,
    "भू": 615,
    "भी": 616,
    " हु": 617,
    "तो": 618,
    "मां": 619,
    "्षे": 620,
    "खा": 621,
    "ज्य": 622,
    "भारती": 623,
    "रिक": 624,
    "ड़ी ": 625,
    "बताय": 626,
    "एव": 627,
    "र्थ": 628,
    "डे": 629,
    "वार को ": 630,
    "गो": 631,
    "ने वाले ": 632,
    "बु": 633,
    "धार": 634,
    "मुख्य": 635,
    " पू": 636,
    "िला ": 637,
    "में": 638,
    "मन": 639,
    "र के ": 640,
    "स के ": 641,
    "उसक": 642,
    "और क": 643,
    "शाम": 644,
    " करने ": 645,
    "बढ़": 646,
    " जि": 647,
    "हीं ": 648,
    "का ": 649,
    "ओं ": 650,
    "ंद्र ": 651,
    " सी": 652,
    " के साथ ": 653,
    "कारी ": 654,
    " करते ": 655,
    "इसक": 656,
    "आरो": 657,
    "है कि ": 658,
    "शन ": 659,
    "न क": 660,
    "्मी": 661,
    "फिल": 662,
    "भारत": 663,
    "रहे हैं": 664,
    "जाता है": 665,
    "हू": 666,
    "श्व": 667,
    "भि": 668,
    "फ्": 669,
    "फै": 670,
    "वी ": 671,
    "शुरू": 672,
    "थे ": 673,
    "पुर": 674,
    "चार ": 675,
    "आज": 676,
    "चाहि": 677,
    "न के ": 678,
    "ूल": 679,
    "दोन": 680,
    "फिर ": 681,
    "ी की ": 682,
    "ाफ": 683,
    "की ": 684,
    "आर": 685,
    "एवं ": 686,
    "उसके ": 687,
    "आप ": 688,
    "वह": 689,
    " की क": 690,
    "देश ": 691,
    "दे ": 692,
    "क्षा ": 693,
    "भाग": 694,
    "क्त": 695,
    "ाते ": 696,
    "अध्य": 697,
    "शी": 698,
    "अव": 699,
    "उनकी ": 700,
    "चाह": 701,
    "ज्याद": 702,
    "चौ": 703,
    "जग": 704,
    "योज": 705,
    "ालय": 706,
    "तथा ": 707,
    "िल ": 708,
    "मार ": 709,
    " कार्य": 710,
    "ंग ": 711,
    "घट": 712,
    "ज्ञ": 713,
    " पु": 714,
    "ाम ": 715,
    "पा ": 716,
    "एम": 717,
    "प्रति": 718,
    "क्स": 719,
    "क्त ": 720,
    " करे": 721,
    "मत": 722,
    "बो": 723,
    "ऐसे ": 724,
    "मा ": 725,
    "नहीं": 726,
    "्रे": 727,
    "ख ": 728,
    "गा ": 729,
    "ू ": 730,
    "ने का ": 731,
    "दा ": 732,
    "तै": 733,
    "बार": 734,
    "फी": 735,
    "िये ": 736,
    "पड़": 737,
    " के बाद": 738,
    "शो": 739,
    "भाव": 740,
    "इं": 741,
    "गई": 742,
    "चे": 743,
    "उसे ": 744,
    "गी ": 745,
    " करना ": 746,
    " पा": 747,
    "जिस": 748,
    "इन": 749,
    "भाज": 750,
    "दिन ": 751,
    "हम ": 752,
    "मैं ": 753,
    "र की ": 754,
    "एं ": 755,
    "आग": 756,
    "चुनाव": 757,
    "फे": 758,
    "बच्च": 759,
    "टि": 760,
    "स ने ": 761,
    "माल": 762,
    "ियां ": 763,
    "ा है कि ": 764,
    "जार": 765,
    "जब ": 766,
    "सरकार ": 767,
    "पार्ट": 768,
    "सभ": 769,
    "वो ": 770,
    "दार ": 771,
    "सान": 772,
    " कोई ": 773,
    "यहां ": 774,
    "सल": 775,
    "डॉ": 776,
    "हा ": 777,
    "त्व": 778,
    "पै": 779,
    "स्व": 780,
    "ग्": 781,
    " पह": 782,
    "फिल्म": 783,
    "हुए": 784,
    "इंड": 785,
    "दिल्ली ": 786,
    "बद": 787,
    "ता है ": 788,
    "आपको ": 789,
    "अच्छ": 790,
    "ने से ": 791,
    "हुई ": 792,
    " के बी": 793,
    "ी को": 794,
    "ा के ": 795,
    "तार": 796,
    "स्प": 797,
    "बैठ": 798,
    "ा कर ": 799,
    "जार ": 800,
    "सार ": 801,
    "डिय": 802,
    "सद": 803,
    "ट्": 804,
    "दिया": 805,
    "अध्यक्ष": 806,
    "साल": 807,
    " का क": 808,
    "अगर ": 809,
    "राम": 810,
    "दान": 811,
    "ाव": 812,
    "वै": 813,
    "ड़े ": 814,
    "पाल": 815,
    "न की ": 816,
    "उठ": 817,
    " स्थ": 818,
    "ियों को ": 819,
    "ंह": 820,
    "र्च": 821,
    "लै": 822,
    "इससे ": 823,
    "सबसे ": 824,
    "ड़ा ": 825,
    "र को ": 826,
    "रहे": 827,
    "नौ": 828,
    "सह": 829,
    " साल": 830,
    " के प्र": 831,
    "बताया कि ": 832,
    "रही ": 833,
    "स में ": 834,
    "आज ": 835,
    "हमार": 836,
    "लोक": 837,
    "बाद ": 838,
    "न्य": 839,
    "मी ": 840,
    "पहुंच": 841,
    "बहुत ": 842,
    "नहीं है": 843,
    "उम": 844,
    "की": 845,
    "रहा ": 846,
    "ज्यादा ": 847,
    "्यों": 848,
    "वज": 849,
    "एन": 850,
    " स्ट": 851,
    "दूसर": 852,
    "ने कहा ": 853,
    "पोर्": 854,
    "बंद": 855,
    "जा सक": 856,
    "प्रदेश": 857,
    "ने के लिए ": 858,
    "स्थान": 859,
    "ले में ": 860,
    "किस्त": 861,
    "कु": 862,
    "ंगे ": 863,
    "लिख": 864,
    "ताब": 865,
    "जर ": 866,
    "लोग ": 867,
    "मुझ": 868,
    "त क": 869,
    "थ ": 870,
    " से क": 871,
    "अपना ": 872,
    "पास ": 873,
    "र्व": 874,
    "तैय": 875,
    "विका": 876,
    "ल में ": 877,
    "लिया ": 878,
    "स की ": 879,
    "वाले ": 880,
    "तह": 881,
    "ब्र": 882,
    "फो": 883,
    "वहीं ": 884,
    "चाहिए": 885,
    "उन": 886,
    "आई ": 887,
    "भे": 888,
    " परि": 889,
    " के आ": 890,
    "ाफी ": 891,
    "पुर ": 892,
    "ों को": 893,
    "हुआ ": 894,
    "अग": 895,
    "ष्ठ": 896,
    "टर ": 897,
    "फ़": 898,
    " को लेकर ": 899,
    "ुरु": 900,
    "सभी ": 901,
    " करोड़": 902,
    "ॉर्": 903,
    "मार्": 904,
    "ारे में ": 905,
    " सिंह ": 906,
    "बी ": 907,
    "कर्": 908,
    "ियों के ": 909,
    "बर ": 910,
    "ताल": 911,
    "ष ": 912,
    " सो": 913,
    "जै": 914,
    "तीन ": 915,
    "जीव": 916,
    "ा की ": 917,
    " रुप": 918,
    "क्ति": 919,
    "दोनों ": 920,
    "पो": 921,
    " कार": 922,
    "ाई": 923,
    "बात ": 924,
    "जरू": 925,
    "दर": 926,
    "प्रा": 927,
    "जे ": 928,
    "ा को": 929,
    "दौरान ": 930,
    "ा है ": 931,
    "चे ": 932,
    " पर": 933,
    "राष्ट्री": 934,
    "भारत ": 935,
    "विद्य": 936,
    "शास": 937,
    "दिया है": 938,
    "सरकार": 939,
    " कर सक": 940,
    "इसे ": 941,
    "अस": 942,
    " किया": 943,
    "गए": 944,
    "षण": 945,
    "ल के ": 946,
    "डी ": 947,
    "पत्": 948,
    "वान": 949,
    "लड़": 950,
    "जय": 951,
    "ते हुए ": 952,
    "शिक": 953,
    "साथ ": 954,
    "नव": 955,
    "ंस": 956,
    "समा": 957,
    "ये": 958,
    "अलग": 959,
    "एम ": 960,
    "मुख्यमंत्री ": 961,
    "धी": 962,
    "अला": 963,
    "भारतीय": 964,
    "पिछ": 965,
    " करी": 966,
    "व्यव": 967,
    "शिक्ष": 968,
    "ट में ": 969,
    "धी ": 970,
    "द्र": 971,
    "ने के ": 972,
    "गांव": 973,
    "वर ": 974,
    "जाने ": 975,
    "्षेत्र": 976,
    "भग": 977,
    "िले": 978,
    "गई है": 979,
    "आत": 980,
    " कै": 981,
    "अधिकार": 982,
    "अम": 983,
    "बर": 984,
    "अनुसार ": 985,
    " किया है": 986,
    "विधान": 987,
    " सरकार ": 988,
    "नेता ": 989,
    " किसी ": 990,
    "ऐसा ": 991,
    "प्त": 992,
    "अब": 993,
    "वाई": 994,
    " मै": 995,
    "दि ": 996,
    " ने ": 997,
    "उम्मी": 998,
    "टीम": 999,
    "मुझे ": 1000,
    "ी में ": 1001,
    "मोदी ": 1002,
    "त्या": 1003,
    "इला": 1004,
    "याद": 1005,
    "ा और ": 1006,
    "जा रहा है": 1007,
    "बना": 1008,
    "क्रम": 1009,
    "पर क": 1010,
    " सब": 1011,
    "फिल्": 1012,
    "माण": 1013,
    "अभी ": 1014,
    "जाने": 1015,
    " प्रति": 1016,
    "व्या": 1017,
    "को": 1018,
    "विश्व": 1019,
    "िसी ": 1020,
    "सुर": 1021,
    " जो ": 1022,
    "गिर": 1023,
    " की": 1024,
    "दार": 1025,
    "शा ": 1026,
    " कुमार ": 1027,
    "ाप": 1028,
    "दर्ज": 1029,
    "राजनी": 1030,
    " के खिला": 1031,
    "इत": 1032,
    "ग्राम": 1033,
    "क में ": 1034,
    "बल्": 1035,
    " पुलि": 1036,
    "लगा": 1037,
    "इसी ": 1038,
    "सभा ": 1039,
    "ंदि": 1040,
    "मांग": 1041,
    "िका ": 1042,
    "टा ": 1043,
    "बेह": 1044,
    "प्रे": 1045,
    "िके": 1046,
    "अधिक ": 1047,
    "जाय": 1048,
    "्योंकि ": 1049,
    " पी": 1050,
    "घो": 1051,
    "श्य": 1052,
    "्ड": 1053,
    "चाल": 1054,
    "सामने ": 1055,
    "होगा": 1056,
    "ुक": 1057,
    "जाएगा": 1058,
    "इसमें ": 1059,
    "विभाग": 1060,
    "हार": 1061,
    "उस ": 1062,
    "समय": 1063,
    "मुताब": 1064,
    "ने पर ": 1065,
    "धार ": 1066,
    "मान ": 1067,
    "ने में ": 1068,
    "ट्रे": 1069,
    "राष्ट्र": 1070,
    "नई ": 1071,
    "अलावा ": 1072,
    "न्याय": 1073,
    "धानमंत्री ": 1074,
    "चुक": 1075,
    "ों के लिए ": 1076,
    "हालां": 1077,
    "विशे": 1078,
    "जल": 1079,
    "होता है": 1080,
    "ँ ": 1081,
    "उसकी ": 1082,
    "ियों ": 1083,
    "ध ": 1084,
    "अमे": 1085,
    "कर": 1086,
    "डाल": 1087,
    "जानकारी ": 1088,
    "मद": 1089,
    "वाय": 1090,
    "दिख": 1091,
    "विरो": 1092,
    "सिंह ": 1093,
    "आय": 1094,
    "ट्ट": 1095,
    "ी का ": 1096,
    "पक्ष": 1097,
    "भारतीय ": 1098,
    "दिल": 1099,
    "छात्र": 1100,
    " करने की ": 1101,
    "स्य": 1102,
    "लॉ": 1103,
    "लू": 1104,
    "दाय": 1105,
    "आपके ": 1106,
    "व्यवस्थ": 1107,
    "उनका ": 1108,
    "डा": 1109,
    "ीम": 1110,
    "गल": 1111,
    "लोगों को ": 1112,
    "रिपोर्": 1113,
    "तरी": 1114,
    "सफ": 1115,
    " के बारे में ": 1116,
    "फिल्म ": 1117,
    "खि": 1118,
    "ह से ": 1119,
    "श्री ": 1120,
    "गै": 1121,
    "अभ": 1122,
    "इसलिए ": 1123,
    "ंद्र": 1124,
    "ओं को ": 1125,
    " कंप": 1126,
    "शी ": 1127,
    "न को ": 1128,
    "शर्म": 1129,
    "न्यू": 1130,
    "पाद": 1131,
    "न स": 1132,
    "मीड": 1133,
    "स को ": 1134,
    "पाकिस्त": 1135,
    "सां": 1136,
    "ने वाली ": 1137,
    "तौ": 1138,
    "सूच": 1139,
    "दौरान": 1140,
    "ी है ": 1141,
    "श्री": 1142,
    " किए ": 1143,
    "रूप में ": 1144,
    "महिला": 1145,
    "उन्होंने कहा कि ": 1146,
    "े में ": 1147,
    "आहे": 1148,
    " बन": 1149,
    "ारण": 1150,
    "न का ": 1151,
    "धिक": 1152,
    " कांग्रे": 1153,
    "ं कि ": 1154,
    "इसका ": 1155,
    "मेरे ": 1156,
    "रत ": 1157,
    "गौ": 1158,
    " कम": 1159,
    "रवि": 1160,
    "विष": 1161,
    "ने लग": 1162,
    "रहे हैं ": 1163,
    "ंगल": 1164,
    "शान": 1165,
    " क्र": 1166,
    "नार": 1167,
    "ोज": 1168,
    " साम": 1169,
    "ी को ": 1170,
    "ियों की ": 1171,
    "हो सक": 1172,
    "यर": 1173,
    "रूप से ": 1174,
    "कृ": 1175,
    "युव": 1176,
    "वेश": 1177,
    "ाला ": 1178,
    "दूस": 1179,
    "ाली ": 1180,
    "तिक": 1181,
    "टीम ": 1182,
    "अमेरिक": 1183,
    "होती है": 1184,
    "बह": 1185,
    "दिए ": 1186,
    "वृ": 1187,
    " पहुंच": 1188,
    "दूसरे ": 1189,
    "यात्र": 1190,
    "दुन": 1191,
    "बच": 1192,
    "वास": 1193,
    " कोर्": 1194,
    "वेद": 1195,
    "बॉ": 1196,
    "चै": 1197,
    "जैसे ": 1198,
    "ट के ": 1199,
    "ानू": 1200,
    "आगे ": 1201,
    " पे": 1202,
    "था कि ": 1203,
    " पहले ": 1204,
    "संग": 1205,
    "रत": 1206,
    "स्त ": 1207,
    "मामले में ": 1208,
    "लिया": 1209,
    "जम": 1210,
    "साइ": 1211,
    "लाइ": 1212,
    " सू": 1213,
    "है और ": 1214,
    "मौजू": 1215,
    "ारण ": 1216,
    " सरकार": 1217,
    "नो": 1218,
    "क्स ": 1219,
    "गुरु": 1220,
    "आव": 1221,
    "ाने की ": 1222,
    "नाम ": 1223,
    "भाजपा ": 1224,
    "गं": 1225,
    "वाली ": 1226,
    "पं": 1227,
    "तिक ": 1228,
    " करने के लिए ": 1229,
    "न से ": 1230,
    " मंत्र": 1231,
    "फीस": 1232,
    "वीडिय": 1233,
    "रंग": 1234,
    "प्त ": 1235,
    "ायक ": 1236,
    "नजर ": 1237,
    "गत": 1238,
    "अन्य": 1239,
    "त्र में ": 1240,
    "िति ": 1241,
    " कुछ ": 1242,
    "हित": 1243,
    "हुआ": 1244,
    "बल": 1245,
    "सै": 1246,
    "इनक": 1247,
    "जांच": 1248,
    "मात": 1249,
    "ंड ": 1250,
    " स्व": 1251,
    "टा": 1252,
    "स्ते": 1253,
    "न्न": 1254,
    "पिछले ": 1255,
    "आतंक": 1256,
    "भु": 1257,
    "मू": 1258,
    "स्वी": 1259,
    "पूर्व": 1260,
    "एल": 1261,
    "देश में ": 1262,
    "भव": 1263,
    "मही": 1264,
    "ाने के लिए ": 1265,
    "तरह ": 1266,
    " होग": 1267,
    "बता ": 1268,
    " पर क": 1269,
    "राव": 1270,
    "संख": 1271,
    "पति ": 1272,
    "अभि": 1273,
    "अन्य ": 1274,
    "महा": 1275,
    "स्ट ": 1276,
    "खेल": 1277,
    "जहां ": 1278,
    "पार": 1279,
    "हार ": 1280,
    "ंक ": 1281,
    " प्रा": 1282,
    "हों": 1283,
    "रिय": 1284,
    "हालांकि ": 1285,
    "अधिकारी ": 1286,
    "सर ": 1287,
    "घर ": 1288,
    "ने कहा कि": 1289,
    "लाख ": 1290,
    "खरी": 1291,
    "विश्": 1292,
    " का": 1293,
    "बड़": 1294,
    "चल ": 1295,
    "भाष": 1296,
    "यान": 1297,
    "न ने ": 1298,
    " स्क": 1299,
    "शामिल": 1300,
    "पुलिस ": 1301,
    "बाल": 1302,
    "मेंट": 1303,
    "त की ": 1304,
    "नरे": 1305,
    " के बीच": 1306,
    "गत ": 1307,
    "द्र ": 1308,
    "लाल": 1309,
    "पक": 1310,
    "आदि": 1311,
    "ंद ": 1312,
    " हि": 1313,
    "ों और ": 1314,
    "ना क": 1315,
    "उम्मीद": 1316,
    " करने का ": 1317,
    "नगर ": 1318,
    " मिल": 1319,
    "इस्ते": 1320,
    "घटना": 1321,
    "बना ": 1322,
    "स्ता": 1323,
    "आरोप ": 1324,
    "हित ": 1325,
    "एफ": 1326,
    "शिव": 1327,
    "ओर ": 1328,
    "रव": 1329,
    " समा": 1330,
    "फैस": 1331,
    "लिये ": 1332,
    "मुताबिक ": 1333,
    "चा ": 1334,
    "ीय ": 1335,
    "क्टर ": 1336,
    "जाते ": 1337,
    "लाख": 1338,
    "यर ": 1339,
    "इंट": 1340,
    "घा": 1341,
    "भाग ": 1342,
    "रीक्ष": 1343,
    "सिल": 1344,
    "छोट": 1345,
    " कॉ": 1346,
    "वल ": 1347,
    "साथ ही ": 1348,
    "रै": 1349,
    "वहां ": 1350,
    " सिंह": 1351,
    "दर्शन": 1352,
    " करते हुए ": 1353,
    "संबंध": 1354,
    " पार्ट": 1355,
    "ा ने ": 1356,
    " जिस": 1357,
    " करें ": 1358,
    "मंड": 1359,
    "उपल": 1360,
    "ियों ने ": 1361,
    "महिला ": 1362,
    "मध्य": 1363,
    "उसने ": 1364,
    "मीडिया ": 1365,
    "उत्तर ": 1366,
    "श्मी": 1367,
    "विक": 1368,
    "भर": 1369,
    "ल की ": 1370,
    " काम": 1371,
    "बाइ": 1372,
    "ूब": 1373,
    "लगा ": 1374,
    "नहीं क": 1375,
    "टू": 1376,
    "हिस्": 1377,
    "जर": 1378,
    "गढ़": 1379,
    "निक ": 1380,
    "जवा": 1381,
    "राहु": 1382,
    "न और ": 1383,
    "श्च": 1384,
    "वर": 1385,
    "पढ़": 1386,
    " सभी ": 1387,
    "गण": 1388,
    "स्वा": 1389,
    "हिंद": 1390,
    "मं": 1391,
    "पूरी ": 1392,
    "लक्ष": 1393,
    " पि": 1394,
    "हमारे ": 1395,
    " बा": 1396,
    "टै": 1397,
    "बीजे": 1398,
    "शामिल ": 1399,
    "ात्म": 1400,
    "मुंब": 1401,
    "व्यक्ति": 1402,
    "उपलब्": 1403,
    "बड़ी ": 1404,
    "चुके ": 1405,
    "एस ": 1406,
    " बै": 1407,
    "मुद्": 1408,
    "न्न ": 1409,
    "ाया": 1410,
    "शुरु": 1411,
    "गिरफ्": 1412,
    "ट पर ": 1413,
    "ोड़": 1414,
    "ी और ": 1415,
    "पर्": 1416,
    "इसकी ": 1417,
    "स्थित ": 1418,
    "अंद": 1419,
    "जिला ": 1420,
    "शल ": 1421,
    "काल": 1422,
    " करें": 1423,
    "त के ": 1424,
    "लाभ": 1425,
    "रन ": 1426,
    "पद": 1427,
    "द्योग": 1428,
    " कई ": 1429,
    "त्म": 1430,
    "लगात": 1431,
    "आरोप": 1432,
    "गया था": 1433,
    "शाद": 1434,
    " समझ": 1435,
    " जा": 1436,
    "सर्": 1437,
    "पता ": 1438,
    "अस्प": 1439,
    "क्ति ": 1440,
    "तहत ": 1441,
    "ऐसी ": 1442,
    "तैयार": 1443,
    " की है": 1444,
    "लिए": 1445,
    "तौर पर ": 1446,
    " करके ": 1447,
    "देव": 1448,
    " समय": 1449,
    "जा रही है": 1450,
    "मैं": 1451,
    "वित्": 1452,
    "फाइ": 1453,
    "फ्र": 1454,
    "ाई ": 1455,
    "ी कर ": 1456,
    "करण": 1457,
    "चो": 1458,
    "ान के ": 1459,
    "राम ": 1460,
    "बू": 1461,
    "वजह से ": 1462,
    "पास": 1463,
    "बताया ": 1464,
    "समय ": 1465,
    "उसका ": 1466,
    " के बीच ": 1467,
    "शिश": 1468,
    "समझ": 1469,
    "ड्र": 1470,
    "आस": 1471,
    "वाप": 1472,
    "सवाल": 1473,
    "मदद": 1474,
    "परे": 1475,
    " पद": 1476,
    "हाथ": 1477,
    "दिव": 1478,
    "भो": 1479,
    "शिकाय": 1480,
    "वाह": 1481,
    "शह": 1482,
    "रात ": 1483,
    "ख्": 1484,
    "निर्माण": 1485,
    "ियाण": 1486,
    "कर क": 1487,
    "मौके ": 1488,
    "यदि ": 1489,
    "इस्तेमाल": 1490,
    "पट": 1491,
    "रेल": 1492,
    "खुद": 1493,
    "जाना ": 1494,
    "दूसरी ": 1495,
    "ार्थ": 1496,
    "नाग": 1497,
    "ालय ": 1498,
    "न पर ": 1499,
    "बन ": 1500,
    "बां": 1501,
    "लेख": 1502,
    "अफ": 1503,
    "गठ": 1504,
    "भूम": 1505,
    "ता के ": 1506,
    "धु": 1507,
    "ाता ": 1508,
    "विरोध": 1509,
    "स्टे": 1510,
    "पड़": 1511,
    "जबकि ": 1512,
    "मर": 1513,
    "दी है": 1514,
    "जल्": 1515,
    "णी ": 1516,
    "वो": 1517,
    "राष्ट्रीय": 1518,
    "घु": 1519,
    "फाय": 1520,
    "ख़": 1521,
    " जी": 1522,
    "गू": 1523,
    "हुई": 1524,
    "ामी ": 1525,
    "ने के बाद ": 1526,
    "फोट": 1527,
    "पहली ": 1528,
    " पै": 1529,
    "शां": 1530,
    "भारी ": 1531,
    "धर्म": 1532,
    "विशेष": 1533,
    "ती है ": 1534,
    " का प्र": 1535,
    "ांच ": 1536,
    "जिल": 1537,
    "जाती है": 1538,
    "देश के ": 1539,
    "आए ": 1540,
    "मैच": 1541,
    " करा": 1542,
    "जबू": 1543,
    "जन ": 1544,
    "पुलिस ने ": 1545,
    " को स": 1546,
    " करोड़ रुप": 1547,
    "दर्श": 1548,
    "ान में ": 1549,
    " मह": 1550,
    "वन": 1551,
    "तब ": 1552,
    "आम ": 1553,
    "ठी": 1554,
    "जिसमें ": 1555,
    "ड़ ": 1556,
    "मंदि": 1557,
    "दिल्ली": 1558,
    "ीय": 1559,
    "क के ": 1560,
    "राह": 1561,
    "पत्र": 1562,
    "र्फ ": 1563,
    "िया के ": 1564,
    " कर दिया ": 1565,
    "नेता": 1566,
    "गेंद": 1567,
    "ची ": 1568,
    "त हो ": 1569,
    "उपयोग": 1570,
    " का आ": 1571,
    "शुक्र": 1572,
    "वर्त": 1573,
    " कहा ": 1574,
    "योजना": 1575,
    "ल्प": 1576,
    "लोगों की ": 1577,
    "चुनाव ": 1578,
    "न्द्र ": 1579,
    "घंट": 1580,
    "बता दे": 1581,
    "ने बताया कि ": 1582,
    "मेरी ": 1583,
    "चान": 1584,
    "सुन": 1585,
    "विभि": 1586,
    "्षेत्र में ": 1587,
    "चर्च": 1588,
    "ण्या": 1589,
    "लैंड": 1590,
    "नग": 1591,
    "ेगा": 1592,
    "शनि": 1593,
    "िश": 1594,
    "ज में ": 1595,
    "तिहा": 1596,
    " की आ": 1597,
    "होगी": 1598,
    "ठी ": 1599,
    "लाई": 1600,
    " कुछ": 1601,
    "फीसदी ": 1602,
    "चू": 1603,
    "मक": 1604,
    "ओं के ": 1605,
    "शरी": 1606,
    "बाहर ": 1607,
    "खंड": 1608,
    "दल": 1609,
    "खो": 1610,
    "आए": 1611,
    "विदेश": 1612,
    "अभिय": 1613,
    " करता है": 1614,
    "ंबर ": 1615,
    "ना है": 1616,
    "नोट": 1617,
    "ियों में ": 1618,
    "शत ": 1619,
    "दाल": 1620,
    "पार्टी ": 1621,
    "रुपये ": 1622,
    "अति": 1623,
    "लंब": 1624,
    "छोड़": 1625,
    "म्मे": 1626,
    "समर्थ": 1627,
    "मजबू": 1628,
    "बढ़": 1629,
    "चिक": 1630,
    "प्रधानमंत्री ": 1631,
    "वासी ": 1632,
    "लगातार ": 1633,
    "जीत": 1634,
    "पंच": 1635,
    "एच": 1636,
    "सम्": 1637,
    "न्द": 1638,
    "अध्यक्ष ": 1639,
    "र का ": 1640,
    "र्य": 1641,
    "टक": 1642,
    "पूछ": 1643,
    "ंस ": 1644,
    "नाथ": 1645,
    "चाहिए ": 1646,
    "डर ": 1647,
    "सौ": 1648,
    "मौके पर ": 1649,
    "तरफ": 1650,
    "बिज": 1651,
    "भारत में ": 1652,
    "गांधी ": 1653,
    "अर्": 1654,
    "टे ": 1655,
    "राहुल ": 1656,
    "धन": 1657,
    "म से ": 1658,
    "काश": 1659,
    " जब": 1660,
    " क्या ": 1661,
    "ारा": 1662,
    "र्ष": 1663,
    "ंत": 1664,
    "तृ": 1665,
    "टो": 1666,
    " सुर": 1667,
    "लु": 1668,
    "ते हुए": 1669,
    "ज के ": 1670,
    "राब": 1671,
    "मूल": 1672,
    "उत्पाद": 1673,
    "ी कि ": 1674,
    " करीब ": 1675,
    "हमें ": 1676,
    "हैं और ": 1677,
    "एं": 1678,
    "ऐस": 1679,
    "होगा ": 1680,
    "यही ": 1681,
    "चलते ": 1682,
    "जा सकता है": 1683,
    "ूल ": 1684,
    "डे ": 1685,
    "शिक्षा ": 1686,
    " बि": 1687,
    "ता की ": 1688,
    "वान ": 1689,
    "गर्": 1690,
    "मैंने ": 1691,
    " मि": 1692,
    "पीछ": 1693,
    " क्": 1694,
    " क्य": 1695,
    "दीप": 1696,
    "गिरफ्तार": 1697,
    "तरह से ": 1698,
    "मे ": 1699,
    "इस बात": 1700,
    "खान": 1701,
    "ने के लिए": 1702,
    "ने को ": 1703,
    "ोई ": 1704,
    "इस्": 1705,
    "योजना ": 1706,
    "घोषण": 1707,
    "म में ": 1708,
    "वु": 1709,
    "पूर्ण": 1710,
    "दूर ": 1711,
    "ओर से ": 1712,
    " बे": 1713,
    "निग": 1714,
    "वरि": 1715,
    "हना है कि ": 1716,
    "टिक": 1717,
    "विद्यालय": 1718,
    "आवश्य": 1719,
    "मामला ": 1720,
    "तर्": 1721,
    "जिसके ": 1722,
    "विके": 1723,
    "ग्रामी": 1724,
    "ाने में ": 1725,
    "क्ष ": 1726,
    "धन ": 1727,
    "भ्र": 1728,
    "सिंह": 1729,
    "इसके अलावा ": 1730,
    "ज्ञान": 1731,
    "आद": 1732,
    "पानी ": 1733,
    "राष्ट्रीय ": 1734,
    "नरेंद्र ": 1735,
    "एक बार ": 1736,
    "नहीं हो": 1737,
    "ओं की ": 1738,
    "संख्या ": 1739,
    "दक्ष": 1740,
    " किया गया है": 1741,
    "मृ": 1742,
    "धो": 1743,
    "हरियाण": 1744,
    "लिय": 1745,
    "हरा": 1746,
    "दिखा": 1747,
    "जन्": 1748,
    "विचार": 1749,
    "ा को ": 1750,
    "ी कि": 1751,
    "मंगल": 1752,
    "सार": 1753,
    "स्तु": 1754,
    "इंटर": 1755,
    "तिय": 1756,
    "लेकिन": 1757,
    "उन ": 1758,
    " कर्म": 1759,
    "मुका": 1760,
    "नियम": 1761,
    "शहर": 1762,
    "ायल": 1763,
    "प्रो": 1764,
    " सह": 1765,
    "ंत ": 1766,
    "पति": 1767,
    "विकास ": 1768,
    " काफी ": 1769,
    " मंत्री ": 1770,
    " करते हैं": 1771,
    "जाएगी": 1772,
    "है कि": 1773,
    "अस्पताल": 1774,
    "योजन": 1775,
    "ट से ": 1776,
    "बड़ा ": 1777,
    "ं और ": 1778,
    "संघ": 1779,
    "नै": 1780,
    " कोई": 1781,
    "वीडियो ": 1782,
    "पूर्व ": 1783,
    "विधानसभा ": 1784,
    "ड़क": 1785,
    " के दौरान ": 1786,
    "लड़": 1787,
    "ारो": 1788,
    "पूर्ण ": 1789,
    "भाजपा": 1790,
    "जय ": 1791,
    "ांग": 1792,
    "ऐसे में ": 1793,
    "बा ": 1794,
    " के खिलाफ ": 1795,
    "टाइ": 1796,
    "ड्": 1797,
    "माध्य": 1798,
    " जो": 1799,
    "िंग": 1800,
    "ायक": 1801,
    " संग": 1802,
    "जगह ": 1803,
    "मोदी": 1804,
    "वरिष्ठ": 1805,
    "ेंद्र ": 1806,
    "्रीय": 1807,
    "वाई ": 1808,
    "धि": 1809,
    "अर्थ": 1810,
    "ाह": 1811,
    "लौ": 1812,
    "शब्": 1813,
    "निर्ण": 1814,
    "तस्वी": 1815,
    "ठा": 1816,
    "गुज": 1817,
    "विकास": 1818,
    "ल ने ": 1819,
    "ष्ण": 1820,
    "एक्": 1821,
    "ट की ": 1822,
    "र्फ": 1823,
    "म्प": 1824,
    "च्या ": 1825,
    "ी कोशिश": 1826,
    "दूर": 1827,
    "हा कि ": 1828,
    "जानकार": 1829,
    "द्ध ": 1830,
    "गंभी": 1831,
    "दम ": 1832,
    "रिकॉर्": 1833,
    " संबंध": 1834,
    "ाने का ": 1835,
    "ले की ": 1836,
    "तं": 1837,
    "ट ने ": 1838,
    " क्योंकि ": 1839,
    "श्रे": 1840,
    " हा": 1841,
    "ाओं ": 1842,
    " प्": 1843,
    "स्कृ": 1844,
    "ना चाह": 1845,
    "बड़े ": 1846,
    "जमी": 1847,
    "ून ": 1848,
    "स्ट्रे": 1849,
    "शर्मा ": 1850,
    "दक्षि": 1851,
    "राय": 1852,
    "निवेश": 1853,
    "रही": 1854,
    "ा किया ": 1855,
    "फु": 1856,
    "भावि": 1857,
    " पो": 1858,
    "लोगों ने ": 1859,
    "र ने ": 1860,
    "दिनों ": 1861,
    "ी हैं": 1862,
    "वादी ": 1863,
    "फल": 1864,
    "अख": 1865,
    "त्ता ": 1866,
    "िति": 1867,
    " समय ": 1868,
    "बह ": 1869,
    "एक्स": 1870,
    "दृ": 1871,
    " क्षेत्र": 1872,
    "पेश": 1873,
    "्रवाई": 1874,
    " करते हैं ": 1875,
    "लब ": 1876,
    "खन": 1877,
    "जीत ": 1878,
    "रक्ष": 1879,
    " जात": 1880,
    "आपकी ": 1881,
    "गए हैं": 1882,
    "बुध": 1883,
    "आयोग": 1884,
    "नए ": 1885,
    "माना ": 1886,
    "र्त": 1887,
    "वर्ग": 1888,
    "प्रीम": 1889,
    "स्थाप": 1890,
    "अच्छा ": 1891,
    "रिल": 1892,
    " सकता है": 1893,
    "सचि": 1894,
    "खा ": 1895,
    "ग्रह": 1896,
    "निश्च": 1897,
    "तीन": 1898,
    "बल ": 1899,
    "वाला ": 1900,
    "इंडिया ": 1901,
    "उत": 1902,
    "ता हू": 1903,
    "समस": 1904,
    "बाद में ": 1905,
    "मुख्य ": 1906,
    "राध": 1907,
    "ी के क": 1908,
    "एजे": 1909,
    "बस": 1910,
    "तला": 1911,
    "वें ": 1912,
    "विधायक ": 1913,
    " करने वाले ": 1914,
    "ता को ": 1915,
    "हुआ है": 1916,
    "ती हैं": 1917,
    " किया गया": 1918,
    "वल": 1919,
    "संद": 1920,
    "रात": 1921,
    "मुकाब": 1922,
    "ना चाहिए": 1923,
    "दुर्": 1924,
    "्मान": 1925,
    "त्त": 1926,
    "हाँ": 1927,
    "था और ": 1928,
    "हजार ": 1929,
    " मो": 1930,
    "पाल ": 1931,
    "इसके बाद ": 1932,
    "ी से ": 1933,
    "जिससे ": 1934,
    "तुल": 1935,
    "महत्व": 1936,
    " करते हुए": 1937,
    "आखि": 1938,
    "नहीं मिल": 1939,
    "उद्": 1940,
    "लर ": 1941,
    "आवेद": 1942,
    " बी": 1943,
    "प्रै": 1944,
    " स्थान": 1945,
    "जिसक": 1946,
    "ियों का ": 1947,
    "तैयार ": 1948,
    "अच्छी ": 1949,
    "लेबा": 1950,
    "पूर": 1951,
    "ये क": 1952,
    "शाय": 1953,
    " कहा कि ": 1954,
    "दारी ": 1955,
    "साय": 1956,
    "ता है कि ": 1957,
    "अंग": 1958,
    "उपलब्ध": 1959,
    "निकाल": 1960,
    "पांच": 1961,
    " सबसे ": 1962,
    "बहुत": 1963,
    "लाम": 1964,
    "फ्ट": 1965,
    "कां": 1966,
    "कान": 1967,
    "अंतर": 1968,
    "निर्म": 1969,
    " हुई ": 1970,
    "क की ": 1971,
    "इस स": 1972,
    " कर रही है": 1973,
    "बैंक": 1974,
    " के खिलाफ": 1975,
    "आवा": 1976,
    "घर": 1977,
    "ंपनी ": 1978,
    "ाने के ": 1979,
    "े और ": 1980,
    "ार्ड": 1981,
    "लिया है": 1982,
    "आर्थ": 1983,
    "वॉ": 1984,
    "ध्यान ": 1985,
    "स का ": 1986,
    "बाजार ": 1987,
    "लोगों के ": 1988,
    "अधि": 1989,
    "ंग्": 1990,
    "डा ": 1991,
    " पुर": 1992,
    "देश की ": 1993,
    "ओं का ": 1994,
    " के रूप में ": 1995,
    "जारी ": 1996,
    "आं": 1997,
    "ने के बाद": 1998,
    "म्म": 1999,
    "ियों से ": 2000,
    "ित्": 2001,
    "गति": 2002,
    "लीवु": 2003,
    "ेश": 2004,
    "स और ": 2005,
    "ता क": 2006,
    "रें ": 2007,
    " सै": 2008,
    "स्थिति ": 2009,
    "इन्": 2010,
    "क्क": 2011,
    "इतना ": 2012,
    " को भी ": 2013,
    "जित": 2014,
    "दुनिया ": 2015,
    "स्कूल": 2016,
    "यास": 2017,
    "भर ": 2018,
    "मुंबई": 2019,
    "घटना ": 2020,
    "छु": 2021,
    "उत्तर प्रदेश": 2022,
    "ात्": 2023,
    "उल्": 2024,
    "हिन्": 2025,
    "जिस ": 2026,
    "ाया है": 2027,
    "जाए ": 2028,
    "खरीद": 2029,
    "रहा": 2030,
    "श्क": 2031,
    "ल और ": 2032,
    "ु ": 2033,
    "शै": 2034,
    " संघ": 2035,
    "नुक": 2036,
    "देखा ": 2037,
    " कर रहे हैं": 2038,
    "सित": 2039,
    "व्": 2040,
    " करने के ": 2041,
    "सोम": 2042,
    "महारा": 2043,
    "नी क": 2044,
    "युक्त ": 2045,
    "स्ट्र": 2046,
    "पाकिस्तान": 2047,
    "शाह": 2048,
    "पान": 2049,
    "यादव ": 2050,
    "उद्योग": 2051,
    "ने अपने ": 2052,
    "िस ": 2053,
    "खबर ": 2054,
    "ते है": 2055,
    " सद": 2056,
    "माह": 2057,
    "न्हें ": 2058,
    "लाल ": 2059,
    "तय": 2060,
    "विपक्ष": 2061,
    "यह भी ": 2062,
    "े कि ": 2063,
    "राश": 2064,
    "वन ": 2065,
    "लान": 2066,
    "फर्": 2067,
    "ना कर": 2068,
    "तब": 2069,
    "ता से ": 2070,
    "श्चि": 2071,
    " प्रो": 2072,
    "ाले": 2073,
    "म्ब": 2074,
    "डो": 2075,
    "े से ": 2076,
    "सी के ": 2077,
    "प्रमुख": 2078,
    "परिवार": 2079,
    "विवाद": 2080,
    "त्री ": 2081,
    " पिछ": 2082,
    " जन": 2083,
    "स्थ्य": 2084,
    "पंजा": 2085,
    " करेंगे": 2086,
    "मेरा ": 2087,
    " कार्यक्रम": 2088,
    "लक": 2089,
    " की स": 2090,
    "ंभ": 2091,
    "लग ": 2092,
    "बल्कि ": 2093,
    "अगले ": 2094,
    "धान ": 2095,
    " को क": 2096,
    "तु ": 2097,
    "अदाल": 2098,
    "धार पर ": 2099,
    "साल ": 2100,
    "तम ": 2101,
    "थम": 2102,
    " के दौरान": 2103,
    "रह ": 2104,
    "अर": 2105,
    "मौजूद ": 2106,
    "आयोज": 2107,
    "वास्त": 2108,
    "व्याप": 2109,
    "म्ह": 2110,
    "मेशा ": 2111,
    " होता है": 2112,
    "जरूरत ": 2113,
    " हुआ ": 2114,
    "ताकि ": 2115,
    "भारत के ": 2116,
    "टिंग": 2117,
    "तीस": 2118,
    "बोर्": 2119,
    "क और ": 2120,
    "आर ": 2121,
    "हान": 2122,
    "रहा है ": 2123,
    "तत्": 2124,
    "धा ": 2125,
    "गृ": 2126,
    "ात्र ": 2127,
    "घे": 2128,
    "मॉ": 2129,
    "पूरा ": 2130,
    " सौ": 2131,
    "सुरक्ष": 2132,
    "आरोप लग": 2133,
    "ल को ": 2134,
    "प्ट": 2135,
    "वापस ": 2136,
    "ियन ": 2137,
    "रखा ": 2138,
    "ात ": 2139,
    " सचि": 2140,
    "जगह": 2141,
    " करीब": 2142,
    "टेस्ट": 2143,
    "हाँ ": 2144,
    "ों में क": 2145,
    "टल ": 2146,
    "ल पर ": 2147,
    "मन ": 2148,
    "राष्ट्रपति ": 2149,
    "विभाग ": 2150,
    "ते हैं कि ": 2151,
    "ाये ": 2152,
    "रच": 2153,
    "गई थी": 2154,
    "मुश्क": 2155,
    "ल से ": 2156,
    "बोध": 2157,
    "बीजेपी ": 2158,
    "हुई है": 2159,
    "प्रिय": 2160,
    "मिले": 2161,
    "जूद ": 2162,
    "मनो": 2163,
    "ुष": 2164,
    "ाज": 2165,
    "चुनाव में ": 2166,
    "ते ही ": 2167,
    " सर्": 2168,
    "अंति": 2169,
    "दाव": 2170,
    "ना के ": 2171,
    "रोक": 2172,
    "वार्": 2173,
    " करने में ": 2174,
    "सान ": 2175,
    "पूरे ": 2176,
    "न हो": 2177,
    "भी नहीं ": 2178,
    " कर रहे ": 2179,
    "ऊपर ": 2180,
    "इससे पहले ": 2181,
    "सरकार ने ": 2182,
    "ब्रि": 2183,
    " करने के लिए": 2184,
    " कृ": 2185,
    "पण": 2186,
    " क्रिके": 2187,
    "वर्ष ": 2188,
    "जरि": 2189,
    " पाकिस्त": 2190,
    "नीचे ": 2191,
    "जोड़": 2192,
    "सूचना ": 2193,
    "हाई": 2194,
    "फा ": 2195,
    "सरकारी ": 2196,
    "नेट": 2197,
    "प्रीम कोर्": 2198,
    "धर": 2199,
    "जिम्मे": 2200,
    "िए ": 2201,
    "फॉ": 2202,
    " स्टे": 2203,
    "कर्ता": 2204,
    "लाइन ": 2205,
    "र और ": 2206,
    " प्रे": 2207,
    "बताया कि": 2208,
    "उससे ": 2209,
    "खास ": 2210,
    "यादव": 2211,
    "देर ": 2212,
    "हासिल": 2213,
    "बज": 2214,
    "गाय": 2215,
    "ल्ड": 2216,
    "शं": 2217,
    "आदि ": 2218,
    "न प": 2219,
    "वक्": 2220,
    "नय": 2221,
    "चिकित्": 2222,
    "दम": 2223,
    "बता दें कि ": 2224,
    "मोबाइ": 2225,
    "सद ": 2226,
    "ल्या": 2227,
    "खत्म": 2228,
    "घर में ": 2229,
    "लोकसभा ": 2230,
    "रक": 2231,
    "ना पड़": 2232,
    "साब": 2233,
    "ने के क": 2234,
    "नौक": 2235,
    "बोल": 2236,
    "नया ": 2237,
    "वित्त ": 2238,
    "ज की ": 2239,
    "निवासी ": 2240,
    "ंदोल": 2241,
    "कों को ": 2242,
    "गये ": 2243,
    "खर्च": 2244,
    "बंग": 2245,
    "फा": 2246,
    "ंगी": 2247,
    "त हो": 2248,
    "धिकार": 2249,
    "ियों": 2250,
    "सदस्य": 2251,
    "बेहतर ": 2252,
    "ांग्रेस ": 2253,
    " पुलिस ": 2254,
    "अपने क": 2255,
    "इस बार ": 2256,
    "लं": 2257,
    "राजनीतिक ": 2258,
    "र्स ": 2259,
    "प्रति ": 2260,
    " हुआ": 2261,
    "वोट": 2262,
    "म के ": 2263,
    "ल्ट": 2264,
    "ाते हैं": 2265,
    "आया ": 2266,
    "निश": 2267,
    "शुरुआ": 2268,
    "रास्": 2269,
    "वक्त ": 2270,
    "दोस्त": 2271,
    "मिल ": 2272,
    "स से ": 2273,
    "निर्देश": 2274,
    "गरी": 2275,
    "रान": 2276,
    "डाय": 2277,
    "इस प्र": 2278,
    "घायल": 2279,
    "ूम": 2280,
    "रार ": 2281,
    "हरा ": 2282,
    "ांनी ": 2283,
    "रं": 2284,
    "त्रि": 2285,
    "इसके लिए ": 2286,
    "बदला": 2287,
    "िया कि ": 2288,
    "तेज": 2289,
    "है तो ": 2290,
    "लब": 2291,
    "दिसं": 2292,
    "वार को": 2293,
    "तीसर": 2294,
    "भ्रष्ट": 2295,
    "उसी ": 2296,
    " के बा": 2297,
    "हमारी ": 2298,
    "चुके हैं": 2299,
    "लिक": 2300,
    "रिया ": 2301,
    "ता और ": 2302,
    "टॉ": 2303,
    "स पर ": 2304,
    "सर्व": 2305,
    "च्च ": 2306,
    "ने भी ": 2307,
    "बने ": 2308,
    "शब्द": 2309,
    "वृद्ध": 2310,
    "ो में ": 2311,
    "स्लि": 2312,
    "ने वाला ": 2313,
    "ाने क": 2314,
    "हिस्सा ": 2315,
    "खेल ": 2316,
    "शू": 2317,
    "रहा था": 2318,
    "ण्ड": 2319,
    " कर दिया": 2320,
    "नई दिल्ली ": 2321,
    "यानी ": 2322,
    "्रा": 2323,
    "नेशन": 2324,
    "अतिरि": 2325,
    "    ": 2326,
    "ड्ड": 2327,
    "विषय": 2328,
    "तार ": 2329,
    " किया था": 2330,
    "मिली ": 2331,
    "किंग": 2332,
    "नर ": 2333,
    "आइ": 2334,
    "फैसला ": 2335,
    " है": 2336,
    "नल ": 2337,
    " पत्र": 2338,
    "अप्रै": 2339,
    "प्रशास": 2340,
    "पीछे ": 2341,
    "चय": 2342,
    "लागू": 2343,
    "आन": 2344,
    " को देख": 2345,
    " स्वा": 2346,
    "गंभीर ": 2347,
    "विभिन्न ": 2348,
    "शल मीडिया ": 2349,
    "लेक्": 2350,
    "यूनि": 2351,
    "ाकर ": 2352,
    "सेना ": 2353,
    "चुकी है": 2354,
    "ाने के लिए": 2355,
    "इतिहा": 2356,
    "ट्वी": 2357,
    "ता में ": 2358,
    "ुल": 2359,
    "े की ": 2360,
    " जै": 2361,
    "ीज": 2362,
    "ंगा ": 2363,
    "ही नहीं ": 2364,
    "सिक ": 2365,
    "रल": 2366,
    "आरोपी ": 2367,
    "शिय": 2368,
    "मारे ": 2369,
    "ग्रामीण": 2370,
    "त से ": 2371,
    "एड": 2372,
    "चारी ": 2373,
    "दात": 2374,
    "व्यवस्था ": 2375,
    "इस तरह": 2376,
    "जिंद": 2377,
    "मुस्लि": 2378,
    "उन्": 2379,
    "धे ": 2380,
    "व्यक्ति ": 2381,
    "ा है कि": 2382,
    "चला ": 2383,
    "रिश्": 2384,
    "उपाय": 2385,
    "लाई ": 2386,
    "ा कोई ": 2387,
    "आधार": 2388,
    "राशि": 2389,
    "ड़े ": 2390,
    "सहयोग": 2391,
    "में से ": 2392,
    "रूप ": 2393,
    "उनसे ": 2394,
    "दान ": 2395,
    "विरा": 2396,
    "मिन": 2397,
    "गे ": 2398,
    "निकल": 2399,
    "बनाया ": 2400,
    " करव": 2401,
    "बिना ": 2402,
    "वास ": 2403,
    " हुए ": 2404,
    "मौत हो ": 2405,
    "ऑन": 2406,
    "उत्त": 2407,
    "उन्होंने कहा ": 2408,
    "जाम": 2409,
    "री को ": 2410,
    "थीं": 2411,
    "खिलाफ": 2412,
    "बल्लेबा": 2413,
    "विजय": 2414,
    "रण ": 2415,
    "्षेत्र ": 2416,
    "आंदोल": 2417,
    "लखन": 2418,
    "वेब": 2419,
    "फिर से ": 2420,
    " पूरी ": 2421,
    "टर": 2422,
    "मार्ग": 2423,
    "छू": 2424,
    "ंका ": 2425,
    "रुपए ": 2426,
    "िया की ": 2427,
    "जनव": 2428,
    "जवाब ": 2429,
    "ठ ": 2430,
    "लड़क": 2431,
    "लें": 2432,
    " मौ": 2433,
    "बाव": 2434,
    "जल्द": 2435,
    "नही ": 2436,
    "रोजग": 2437,
    "बनाए ": 2438,
    "क को ": 2439,
    "और": 2440,
    "जाता है ": 2441,
    "खू": 2442,
    "ल का ": 2443,
    "धर ": 2444,
    "माध्यम से ": 2445,
    "इसके बाद": 2446,
    " प्रदेश": 2447,
    "ा के क": 2448,
    "लगे ": 2449,
    " करने से ": 2450,
    "जिनक": 2451,
    "तंत्र": 2452,
    "पिता ": 2453,
    "भर्": 2454,
    "भविष": 2455,
    "स्थित": 2456,
    "नी के ": 2457,
    " कानू": 2458,
    "अंदर ": 2459,
    "ौर ": 2460,
    "प्ता": 2461,
    "भाई": 2462,
    "ड़ी ": 2463,
    "ीन ": 2464,
    "हल": 2465,
    "मामले ": 2466,
    "वीं ": 2467,
    "रिक ": 2468,
    "मर्": 2469,
    "फरव": 2470,
    "िसान": 2471,
    "ह में ": 2472,
    " सां": 2473,
    "देकर ": 2474,
    "तोड़": 2475,
    " स्कूल": 2476,
    "इस पर ": 2477,
    "विस्त": 2478,
    " कर सकते हैं": 2479,
    "नागरिक": 2480,
    "ताप": 2481,
    "नात": 2482,
    "नेतृ": 2483,
    "कॉ": 2484,
    " प्रतिशत ": 2485,
    "शर्": 2486,
    "तरीके ": 2487,
    "अवस": 2488,
    "गांव ": 2489,
    "नाल": 2490,
    " पूर्": 2491,
    " जाए": 2492,
    "बस ": 2493,
    "घोष": 2494,
    "बिल": 2495,
    "निदेश": 2496,
    "पहला ": 2497,
    "आपका ": 2498,
    "प्य": 2499,
    "ठीक ": 2500,
    "चिं": 2501,
    "सीट": 2502,
    "प्रदर्शन": 2503,
    "माय": 2504,
    "भुगत": 2505,
    " जब ": 2506,
    "बदल": 2507,
    "युवा ": 2508,
    "पोस्ट": 2509,
    "्याद": 2510,
    "रुपए": 2511,
    "चुनौ": 2512,
    "संगठ": 2513,
    "हाद": 2514,
    "दय": 2515,
    "ति के ": 2516,
    "बॉलीवु": 2517,
    "स क": 2518,
    "तू": 2519,
    "तेजी ": 2520,
    "बातची": 2521,
    "हमने ": 2522,
    "शाल": 2523,
    "क़": 2524,
    "हल्": 2525,
    "जम्म": 2526,
    "खान ": 2527,
    "इंग्": 2528,
    "फार": 2529,
    "राशि ": 2530,
    " किसान": 2531,
    "सफल": 2532,
    " जिसक": 2533,
    "तकनी": 2534,
    "यान ": 2535,
    "में कहा ": 2536,
    "शुभ": 2537,
    "अहम": 2538,
    "भाई ": 2539,
    "दोष": 2540,
    "रेलवे ": 2541,
    "वैसे ": 2542,
    " हम ": 2543,
    "भग ": 2544,
    " पं": 2545,
    "स्पे": 2546,
    "हॉ": 2547,
    " कंपनी ": 2548,
    "खुश": 2549,
    "तारी": 2550,
    "संभाव": 2551,
    "हमेशा ": 2552,
    "जोर ": 2553,
    "वाल ": 2554,
    "ंद्रीय": 2555,
    " कर दे": 2556,
    "फोन ": 2557,
    "त्व ": 2558,
    " कर दिया है": 2559,
    "हाल ही ": 2560,
    "त आ": 2561,
    "गुण": 2562,
    " मा": 2563,
    "त ने ": 2564,
    "कर्म": 2565,
    "ीमत": 2566,
    "विज्ञ": 2567,
    "पत्नी ": 2568,
    "आईपी": 2569,
    "बयान": 2570,
    "ी ने ": 2571,
    "े पर ": 2572,
    "लगभग ": 2573,
    "पढ़": 2574,
    "मामल": 2575,
    "धि ": 2576,
    "लखनऊ": 2577,
    "आवश्यक": 2578,
    "लगभग": 2579,
    "सकते हैं": 2580,
    "नुकसान": 2581,
    "खिलाफ ": 2582,
    "दिखाई ": 2583,
    "यहां": 2584,
    "क से ": 2585,
    "व्यक्त": 2586,
    "बिजली ": 2587,
    "सुविध": 2588,
    " के पास ": 2589,
    "पीएम ": 2590,
    "ने और ": 2591,
    "चरण": 2592,
    "दाम": 2593,
    "बैठक में ": 2594,
    "ना में ": 2595,
    "ः ": 2596,
    " सूच": 2597,
    " के तहत ": 2598,
    "टीवी ": 2599,
    "बर्": 2600,
    "विशेष ": 2601,
    " का कहना है कि ": 2602,
    " सके": 2603,
    "अलग ": 2604,
    "रे में ": 2605,
    "आउ": 2606,
    "क्रम ": 2607,
    "ना की ": 2608,
    "भ्रष्टा": 2609,
    "काम": 2610,
    "ारा ": 2611,
    "परीक्ष": 2612,
    "ाएं ": 2613,
    "फल ": 2614,
    "आयोजित": 2615,
    "एंड": 2616,
    "राजधान": 2617,
    "जित ": 2618,
    " मैं ": 2619,
    "र्ना": 2620,
    "शव": 2621,
    "ओ ": 2622,
    "रोड": 2623,
    " सुन": 2624,
    "बारिश": 2625,
    "ांक": 2626,
    "ा से ": 2627,
    "राज्य ": 2628,
    "खूब": 2629,
    " के बाव": 2630,
    "बता": 2631,
    " प्रशास": 2632,
    "िक्र": 2633,
    "ता का ": 2634,
    "रोग": 2635,
    " जार": 2636,
    "जीवन ": 2637,
    "ौन ": 2638,
    "दुकान": 2639,
    "प्रधान": 2640,
    " प्रधानमंत्री ": 2641,
    "ट का ": 2642,
    "बीमार": 2643,
    "होगी ": 2644,
    "भारत की ": 2645,
    "स्त्र": 2646,
    " केवल ": 2647,
    "ती हैं ": 2648,
    "ांड": 2649,
    "उन्होंने कहा कि": 2650,
    "पत्र ": 2651,
    "स्थान ": 2652,
    "जिसे ": 2653,
    "चुका है": 2654,
    "ों के साथ": 2655,
    "कोर्": 2656,
    "नियु": 2657,
    "रही हैं": 2658,
    "भाव ": 2659,
    " कुमार": 2660,
    "सवाल ": 2661,
    "सिक": 2662,
    "ड़ ": 2663,
    "आयु": 2664,
    "असल ": 2665,
    "रन": 2666,
    "प में ": 2667,
    "वरिष्ठ ": 2668,
    "दिया गया है": 2669,
    "उच्च": 2670,
    "छा": 2671,
    "जाने की ": 2672,
    " सकते हैं": 2673,
    "ंट ": 2674,
    "शहर ": 2675,
    "ऑफ": 2676,
    "विधायक": 2677,
    "बनी ": 2678,
    "नियंत्र": 2679,
    "असल": 2680,
    "समाज": 2681,
    " साथ": 2682,
    "िलो": 2683,
    "ने की कोशिश": 2684,
    " किसी भी ": 2685,
    "लिखा ": 2686,
    "   ": 2687,
    "इंत": 2688,
    "ेंगे": 2689,
    "नंबर ": 2690,
    "त और ": 2691,
    "वाद ": 2692,
    "दर ": 2693,
    "कै": 2694,
    "हूं": 2695,
    "हम्म": 2696,
    "जाते हैं": 2697,
    "थोड़": 2698,
    "पूर ": 2699,
    "अवसर पर ": 2700,
    "छह ": 2701,
    "बोधित": 2702,
    " बजे ": 2703,
    " के अनुसार ": 2704,
    "जिन": 2705,
    "मात्र ": 2706,
    "बजे ": 2707,
    "जिले": 2708,
    "स्कार ": 2709,
    " मान": 2710,
    "हट": 2711,
    "शोध": 2712,
    "जाग": 2713,
    " हम": 2714,
    "यह है कि ": 2715,
    "अने": 2716,
    "ी कार्य": 2717,
    "चले ": 2718,
    "हजार": 2719,
    "इस दौरान ": 2720,
    "ांग्रेस": 2721,
    "पित": 2722,
    "निर्देश ": 2723,
    "जाएगा ": 2724,
    "लगाया ": 2725,
    "दाख": 2726,
    "सी की ": 2727,
    "ऑफि": 2728,
    "री में ": 2729,
    "पुलिस": 2730,
    "में काम": 2731,
    "कू": 2732,
    "ोग्र": 2733,
    "अंग्रे": 2734,
    "या क": 2735,
    "गठबंध": 2736,
    "व में ": 2737,
    "रीज": 2738,
    "ष्ट ": 2739,
    "निजी ": 2740,
    "बैंक ": 2741,
    "नहीं किया ": 2742,
    "वीडियो": 2743,
    "षद": 2744,
    " से जु": 2745,
    " करोड़": 2746,
    "समी": 2747,
    "क्रिया ": 2748,
    "ी हैं ": 2749,
    "मुला": 2750,
    "प्रदेश ": 2751,
    " किया गया ": 2752,
    "महाराष्ट": 2753,
    "मेड": 2754,
    "ते हैं और ": 2755,
    " हे": 2756,
    "ंडी": 2757,
    " मी": 2758,
    "नरेंद्र मोदी ": 2759,
    "दलि": 2760,
    "अल": 2761,
    "खब": 2762,
    "हे ": 2763,
    "सम्मान": 2764,
    " होगा": 2765,
    "उंट": 2766,
    "छात्र ": 2767,
    "लिंग": 2768,
    "में कोई ": 2769,
    " सरकार ने ": 2770,
    " कभी ": 2771,
    "ुल ": 2772,
    "उच्च ": 2773,
    "है जो ": 2774,
    "्रिके": 2775,
    "ऑफ ": 2776,
    "होंगे": 2777,
    "प्रस": 2778,
    "थे और ": 2779,
    "परिण": 2780,
    " के एक ": 2781,
    "गेंदबा": 2782,
    "छि": 2783,
    " जिसमें ": 2784,
    "ंचा": 2785,
    " जे": 2786,
    "सी को ": 2787,
    "पल": 2788,
    "अन्": 2789,
    "एक स": 2790,
    "बड़": 2791,
    "पंचाय": 2792,
    "प्रकाश": 2793,
    "थी और ": 2794,
    "बारे में ": 2795,
    "ाने से ": 2796,
    "रज": 2797,
    "शुक्रवार को ": 2798,
    "पॉ": 2799,
    "्रीय ": 2800,
    "्यों ": 2801,
    "क्षे": 2802,
    " केंद्र ": 2803,
    "छोटे ": 2804,
    " जान": 2805,
    "महीने ": 2806,
    "ड़ा ": 2807,
    "मता ": 2808,
    "वर्ष में ": 2809,
    "पुर में ": 2810,
    "ट्रै": 2811,
    "सामान": 2812,
    " संगठ": 2813,
    "ों में से ": 2814,
    "ट ब": 2815,
    " करना चाह": 2816,
    "ात्मक ": 2817,
    "सुबह ": 2818,
    "परिवार ": 2819,
    "ेश ": 2820,
    "नाम पर ": 2821,
    "एयर": 2822,
    "ता था": 2823,
    "टन ": 2824,
    "गुप्": 2825,
    "तरफ से ": 2826,
    "हरे ": 2827,
    "तीश": 2828,
    "बुर": 2829,
    "दश": 2830,
    "रीक्षा ": 2831,
    "दल ": 2832,
    "गिराव": 2833,
    "दिल्ली में ": 2834,
    "मुख्यमंत्र": 2835,
    "रोक ": 2836,
    "मीटर ": 2837,
    "उम्": 2838,
    "हाल ही में ": 2839,
    "पश्चि": 2840,
    "सिर्फ ": 2841,
    "वर्ण": 2842,
    "म की ": 2843,
    "असर ": 2844,
    "राइ": 2845,
    "तमाम": 2846,
    "जरी": 2847,
    "राज्य में ": 2848,
    "टर्": 2849,
    "वही ": 2850,
    "ह्": 2851,
    "ाने वाले ": 2852,
    "उम्मीद ": 2853,
    "यं": 2854,
    "बिल्": 2855,
    "न्द्र": 2856,
    "शुरू हो ": 2857,
    "जाकर ": 2858,
    "ा किसी ": 2859,
    " पंच": 2860,
    "म और ": 2861,
    "त का ": 2862,
    "ंदर ": 2863,
    "आरक्ष": 2864,
    "एसपी ": 2865,
    " की ओर से ": 2866,
    "ओं ने ": 2867,
    "राजस्थान": 2868,
    "ार्रवाई": 2869,
    "चीज": 2870,
    "भूमिका ": 2871,
    "सिद्ध": 2872,
    "मार्ट": 2873,
    "अग्र": 2874,
    "ों के साथ ": 2875,
    " काल": 2876,
    "रॉ": 2877,
    "उपस्थित ": 2878,
    "उपा": 2879,
    "आपको": 2880,
    "ा के": 2881,
    "हत्य": 2882,
    " कश्मी": 2883,
    "वाहन": 2884,
    "ंसी ": 2885,
    "ान्": 2886,
    "काश ": 2887,
    " कैसे ": 2888,
    " बढ़": 2889,
    "तुम्ह": 2890,
    "दरअसल ": 2891,
    "रानी ": 2892,
    "जम्मू": 2893,
    " बच्च": 2894,
    "शानदार ": 2895,
    "ियोज": 2896,
    "त है": 2897,
    "वारी ": 2898,
    "छत्": 2899,
    "कुछ ": 2900,
    "भविष्य": 2901,
    "भव ": 2902,
    "सोच": 2903,
    "फोटो ": 2904,
    "तभी ": 2905,
    " कोह": 2906,
    "प्रतिनि": 2907,
    "अक्ट": 2908,
    "ील": 2909,
    "त्ये": 2910,
    "ंट्र": 2911,
    "नु": 2912,
    "फू": 2913,
    "ते थे": 2914,
    "नर": 2915,
    "तथ": 2916,
    "हन ": 2917,
    "र्मचार": 2918,
    "विदेशी ": 2919,
    "अब तक ": 2920,
    "देने की ": 2921,
    "मंगलवार को ": 2922,
    "थाना ": 2923,
    "मार्च": 2924,
    " हजार ": 2925,
    "युवा": 2926,
    "सी क": 2927,
    "पर्य": 2928,
    "मेंट ": 2929,
    "मुद्र": 2930,
    "गांव में ": 2931,
    "तंत्र ": 2932,
    "पी के ": 2933,
    "मां ": 2934,
    "िसी भी ": 2935,
    "न्हों": 2936,
    "ित हो": 2937,
    "ाते हुए ": 2938,
    " पिछले ": 2939,
    "स्टर ": 2940,
    "ंपनिय": 2941,
    "रविवार को ": 2942,
    "तन ": 2943,
    "जरिए ": 2944,
    "इतनी ": 2945,
    "ष्टि": 2946,
    "जल ": 2947,
    "इच्छ": 2948,
    "गुर": 2949,
    "ा काम": 2950,
    "दर्शन ": 2951,
    "मुश्किल": 2952,
    "दूसरा ": 2953,
    " बहु": 2954,
    "आने वाले ": 2955,
    "सुरक्षा ": 2956,
    " माम": 2957,
    "सूत्र": 2958,
    "पंजाब": 2959,
    "वेबसाइ": 2960,
    " किया जाएगा": 2961,
    "पहुंच ": 2962,
    "लाह": 2963,
    "छत्तीस": 2964,
    "हिमा": 2965,
    "ग्राह": 2966,
    "मंजू": 2967,
    "रही थी": 2968,
    "हरी ": 2969,
    "अच्छे ": 2970,
    "आर्थिक ": 2971,
    "डिग्र": 2972,
    "श्रद्ध": 2973,
    "ा कार्य": 2974,
    "अंतिम ": 2975,
    "पार्": 2976,
    "योगी ": 2977,
    "मण": 2978,
    " पूरे ": 2979,
    "चढ़": 2980,
    "सुप्रीम कोर्": 2981,
    "मौका ": 2982,
    "ाता है": 2983,
    "इस मामले में ": 2984,
    "तक पहुंच": 2985,
    " के कारण ": 2986,
    "रहे थे": 2987,
    "शनिवार को ": 2988,
    "शेयर": 2989,
    "चर ": 2990,
    "नम": 2991,
    "ें क": 2992,
    "तियोग": 2993,
    " स्तर ": 2994,
    "साठी ": 2995,
    "मेल": 2996,
    "ंगा": 2997,
    "बोर्ड": 2998,
    "क्या ": 2999,
    "अंक": 3000,
    "े के ": 3001,
    "हत": 3002,
    "बुल": 3003,
    "श्वर ": 3004,
    "इस क": 3005,
    "तरफ ": 3006,
    "नाथ ": 3007,
    "चार्": 3008,
    "कात": 3009,
    "शिकायत": 3010,
    "राज ": 3011,
    "ील ": 3012,
    "पहचान": 3013,
    "जवाब": 3014,
    "िए": 3015,
    "देख ": 3016,
    "को ": 3017,
    "थान": 3018,
    "मुंबई ": 3019,
    "मश": 3020,
    " करेंगे ": 3021,
    "देखकर ": 3022,
    "गर्म": 3023,
    " रुपये ": 3024,
    "ायी ": 3025,
    "क है": 3026,
    "ली में ": 3027,
    "पीड़": 3028,
    "अक": 3029,
    "रें": 3030,
    "न प्र": 3031,
    "अक्ष": 3032,
    "खुला": 3033,
    "समे": 3034,
    "मारो": 3035,
    "धारण": 3036,
    "पांच ": 3037,
    "गयी ": 3038,
    "विश्वविद्यालय": 3039,
    " करती है": 3040,
    "खाना ": 3041,
    "सही ": 3042,
    "पत्रकार": 3043,
    "बीच": 3044,
    "नाव": 3045,
    "्यु": 3046,
    "ठे": 3047,
    "डॉ ": 3048,
    "ोर ": 3049,
    "क ने ": 3050,
    "मामले की ": 3051,
    "गर": 3052,
    "सभा": 3053,
    "हाल ": 3054,
    "कार्य": 3055,
    "तुर": 3056,
    "ों द्वारा ": 3057,
    " सकती है": 3058,
    "तान": 3059,
    "जाये": 3060,
    " सिर्फ ": 3061,
    "बड़ी ": 3062,
    "देना ": 3063,
    "नवंब": 3064,
    "लगी ": 3065,
    "शुल्": 3066,
    "ट्रोल": 3067,
    " क्यों ": 3068,
    " जबकि ": 3069,
    "के में ": 3070,
    "प्राप्त ": 3071,
    "ब्ल": 3072,
    "नए": 3073,
    "बयान ": 3074,
    "नी की ": 3075,
    "पसंद": 3076,
    "अस्पताल में ": 3077,
    "टी के ": 3078,
    "ूर्": 3079,
    "अपराध": 3080,
    "भर में ": 3081,
    "था कि": 3082,
    "देवी ": 3083,
    "निर्णय ": 3084,
    "भेज": 3085,
    "सप": 3086,
    "आम": 3087,
    "वाच": 3088,
    "मात्र": 3089,
    "रहेगा": 3090,
    "नान": 3091,
    "धर्": 3092,
    "कल": 3093,
    " हों": 3094,
    "हो सकता है": 3095,
    "चंद्र": 3096,
    "जुलाई": 3097,
    "शाह ": 3098,
    "न्यायालय": 3099,
    "बिहार ": 3100,
    "आदमी ": 3101,
    "अमेरिकी ": 3102,
    "होता है ": 3103,
    "ओं में ": 3104,
    " की थी": 3105,
    "अनुम": 3106,
    " सेवा ": 3107,
    "ामु": 3108,
    "अधिकार ": 3109,
    "सेव": 3110,
    "नीय ": 3111,
    "ंगी ": 3112,
    "भगवान ": 3113,
    "ों की क": 3114,
    "बुधवार को ": 3115,
    "तरि": 3116,
    "भीतर ": 3117,
    "कई ": 3118,
    "एक्ट": 3119,
    "वजह ": 3120,
    " मार्": 3121,
    "उसमें ": 3122,
    " मे ": 3123,
    "फर": 3124,
    "मंदिर ": 3125,
    "समू": 3126,
    " कांग्रेस ": 3127,
    "विक ": 3128,
    "जानकारी के ": 3129,
    "ग़": 3130,
    "मोबाइल ": 3131,
    "विकेट ": 3132,
    "ट्वीट": 3133,
    "मज": 3134,
    "मूल्य": 3135,
    "रिलीज": 3136,
    "उन्होंने बताया कि ": 3137,
    "उम्मीदवार ": 3138,
    "पहली बार ": 3139,
    "या फिर ": 3140,
    "जिक ": 3141,
    "दिया था": 3142,
    "ओं से ": 3143,
    "दक्षिण ": 3144,
    "दर्द": 3145,
    "थी कि ": 3146,
    "शराब": 3147,
    "ी के": 3148,
    "ाते हैं ": 3149,
    "शक्ति": 3150,
    "ति में ": 3151,
    "लंबे ": 3152,
    "लेट": 3153,
    "युद्ध": 3154,
    "लां": 3155,
    "भा ": 3156,
    "नर्": 3157,
    "मैच में ": 3158,
    "क्सर ": 3159,
    "खी ": 3160,
    "वाइ": 3161,
    "देखने को ": 3162,
    "वे क": 3163,
    "रल ": 3164,
    "झू": 3165,
    "नेतृत्व": 3166,
    "ट्रो": 3167,
    "हमल": 3168,
    "उम्मीदवार": 3169,
    "ाने पर ": 3170,
    "इस फिल्म": 3171,
    "स्य ": 3172,
    "थिय": 3173,
    "प के ": 3174,
    "चौध": 3175,
    "सलमान": 3176,
    " सुविध": 3177,
    "तरीके से ": 3178,
    "मुक": 3179,
    "देता है": 3180,
    "खी": 3181,
    "नॉ": 3182,
    "अगस्त": 3183,
    "आतंकवाद": 3184,
    "जन्म": 3185,
    " जैसे ": 3186,
    "मई": 3187,
    "होना ": 3188,
    "स्थिति": 3189,
    "लें ": 3190,
    "पार्टी के ": 3191,
    "रिपोर्ट": 3192,
    "लगाए ": 3193,
    "ट्वि": 3194,
    "आयो": 3195,
    "वाज": 3196,
    "नहीं है ": 3197,
    "वीर ": 3198,
    "े को ": 3199,
    "मूर्": 3200,
    "एल ": 3201,
    "वक्ता ": 3202,
    "बॉलीवुड": 3203,
    "लोड": 3204,
    "नंब": 3205,
    "प्रदान": 3206,
    "मिला ": 3207,
    "फायदा ": 3208,
    "षि ": 3209,
    "मंच": 3210,
    "ऊर्": 3211,
    "ं कि": 3212,
    "हत्या": 3213,
    "तीय ": 3214,
    "ार्ड ": 3215,
    "ट्रां": 3216,
    "रिंग": 3217,
    "हां": 3218,
    "ानि": 3219,
    "फी ": 3220,
    "ख्य": 3221,
    "मला ": 3222,
    "गोल": 3223,
    "व्यापार": 3224,
    "निश्चित": 3225,
    "जाएंगे": 3226,
    "एक ही ": 3227,
    "अचान": 3228,
    "मगर ": 3229,
    "क्कर ": 3230,
    "गौरत": 3231,
    "प्रभावि": 3232,
    "जाता ": 3233,
    "रिपोर्ट ": 3234,
    "इनके ": 3235,
    " समाज": 3236,
    "जनता ": 3237,
    "विचार ": 3238,
    "शहर में ": 3239,
    "टल": 3240,
    "मित ": 3241,
    "विमान": 3242,
    "नियर ": 3243,
    "झे": 3244,
    "कुल ": 3245,
    "एक क": 3246,
    "समस्या ": 3247,
    "ग्ला": 3248,
    " पूर्व": 3249,
    "ति की ": 3250,
    "चली ": 3251,
    "हरियाणा ": 3252,
    "ों के लिए": 3253,
    "अमरी": 3254,
    "शल मीडिया पर ": 3255,
    "क का ": 3256,
    "ळे ": 3257,
    "नज": 3258,
    "टीम ने ": 3259,
    " बल्": 3260,
    "ते हैं तो ": 3261,
    "मैदान": 3262,
    "यूपी ": 3263,
    "नती": 3264,
    "महसू": 3265,
    "लाइन": 3266,
    "ों के क": 3267,
    "अतिरिक्त ": 3268,
    "उपाध्य": 3269,
    "विभाग के ": 3270,
    "पन ": 3271,
    "भूमि": 3272,
    "े कि": 3273,
    "तीसरे ": 3274,
    "जिन ": 3275,
    "खुद ": 3276,
    "टन": 3277,
    "जी क": 3278,
    "यह स": 3279,
    "ान और ": 3280,
    "चंडी": 3281,
    "सामना कर": 3282,
    " बु": 3283,
    "ग्रु": 3284,
    "क्टर": 3285,
    "जुर्": 3286,
    " परीक्ष": 3287,
    "मुद्दे ": 3288,
    " से कम ": 3289,
    "जैसी ": 3290,
    "ल्या ": 3291,
    "उड़": 3292,
    "झा": 3293,
    "नल": 3294,
    "री से ": 3295,
    "जीवन": 3296,
    "वही": 3297,
    "ने अपनी ": 3298,
    "एक और ": 3299,
    "नाइ": 3300,
    "प्रतिशत ": 3301,
    "रुपये": 3302,
    "मुताबिक": 3303,
    "षण ": 3304,
    "कश्मी": 3305,
    "डिंग": 3306,
    "बढ़ ": 3307,
    "गए थे": 3308,
    "परेशान": 3309,
    "संचाल": 3310,
    "छोड़": 3311,
    "नी चाहिए": 3312,
    "मतदान": 3313,
    "बदलाव": 3314,
    "तेज ": 3315,
    "स्वास्थ्य": 3316,
    " करने पर ": 3317,
    "मल": 3318,
    " की गई ": 3319,
    "अध्यय": 3320,
    "नाएं ": 3321,
    " समस": 3322,
    "लॉन्": 3323,
    "आत्": 3324,
    "पहले": 3325,
    "मत ": 3326,
    "उत्तरा": 3327,
    "उंड": 3328,
    "घोषित": 3329,
    " पार": 3330,
    " सरकारी ": 3331,
    "ली की ": 3332,
    " सामने ": 3333,
    "जाम ": 3334,
    " महा": 3335,
    "खाद": 3336,
    "सोमवार को ": 3337,
    "खिलाड़": 3338,
    "ऑस्ट्रे": 3339,
    "शार": 3340,
    " साथ ": 3341,
    "ार में ": 3342,
    "धार्म": 3343,
    "झार": 3344,
    "तिक्र": 3345,
    "िता ": 3346,
    "इंग्लैंड": 3347,
    "पाठ": 3348,
    "ज़ ": 3349,
    "आर्": 3350,
    "भरो": 3351,
    "ब्रे": 3352,
    "सात": 3353,
    "ियों को": 3354,
    "कों की ": 3355,
    "उदा": 3356,
    "पत": 3357,
    "अवै": 3358,
    "सीबी": 3359,
    "ट्यू": 3360,
    "न्होंने ": 3361,
    " के साथ ही ": 3362,
    "नहीं हो ": 3363,
    "व्यवह": 3364,
    " कौ": 3365,
    "आपने ": 3366,
    "गलत ": 3367,
    " कर रहा है": 3368,
    "एश": 3369,
    "गौरतलब ": 3370,
    " करने वाल": 3371,
    " करोड़ ": 3372,
    "इसी": 3373,
    "राया ": 3374,
    " स्म": 3375,
    "वात": 3376,
    " किये ": 3377,
    "साफ": 3378,
    "ई है": 3379,
    "रदार ": 3380,
    " की बात": 3381,
    "विद": 3382,
    "री है": 3383,
    "रहता है": 3384,
    "वर्तमान": 3385,
    "उत्तर": 3386,
    " के आधार पर ": 3387,
    "याद ": 3388,
    "जवान": 3389,
    " पार्टी ": 3390,
    "पहले ही ": 3391,
    "लाह ": 3392,
    "मॉड": 3393,
    "उपलब्ध ": 3394,
    "गढ़": 3395,
    " करेगा": 3396,
    "चित ": 3397,
    "गोली ": 3398,
    " क्ष": 3399,
    "रिकॉर्ड": 3400,
    "क पर ": 3401,
    "सात ": 3402,
    " हर ": 3403,
    "हाथ ": 3404,
    "जिय": 3405,
    "दें ": 3406,
    "फेसब": 3407,
    "घंटे ": 3408,
    "गुप्ता ": 3409,
    " के बाहर ": 3410,
    "आत्म": 3411,
    "रही है ": 3412,
    "अहम ": 3413,
    "बच्चे ": 3414,
    "नई": 3415,
    "टिप्": 3416,
    "आउट": 3417,
    "बचा": 3418,
    "री के ": 3419,
    "ा है और ": 3420,
    " पढ़": 3421,
    "ांना ": 3422,
    "डु": 3423,
    "जर्": 3424,
    "फ्रे": 3425,
    "शिकायत ": 3426,
    "िया को ": 3427,
    "प्राप्त": 3428,
    "इस अवसर पर ": 3429,
    "्यादा ": 3430,
    "भाल": 3431,
    " को सं": 3432,
    "पाए": 3433,
    "इस्लाम": 3434,
    "हमारा ": 3435,
    "कर्ता ": 3436,
    "करण ": 3437,
    "भी है": 3438,
    "शेयर ": 3439,
    "राहुल गांधी ": 3440,
    "वैज्ञान": 3441,
    "ल्ड ": 3442,
    "े को": 3443,
    "निया ": 3444,
    "सन ": 3445,
    "परेश": 3446,
    "तत्काल": 3447,
    "यदि": 3448,
    "े तो ": 3449,
    "गया है ": 3450,
    "गाँ": 3451,
    "मुदाय": 3452,
    "नीतीश": 3453,
    "आण": 3454,
    "गुजरा": 3455,
    "भाजप": 3456,
    "उद्देश": 3457,
    "ब्लॉ": 3458,
    "ट और ": 3459,
    " स्वी": 3460,
    "समस्या": 3461,
    "ान ने ": 3462,
    "रुण": 3463,
    "ओव": 3464,
    "दोपह": 3465,
    "लाय": 3466,
    "शौ": 3467,
    "संख्या में ": 3468,
    "धीरे ": 3469,
    "गया और ": 3470,
    "लेकर क": 3471,
    "री की ": 3472,
    "स्थान पर ": 3473,
    "प्री": 3474,
    " पड़": 3475,
    "भगवान": 3476,
    "याच": 3477,
    "जाने वाले ": 3478,
    " करोड़ रुपये ": 3479,
    "इसलिए": 3480,
    "ांग्रेस के ": 3481,
    "जाति": 3482,
    "भुगतान": 3483,
    "संक": 3484,
    "खिलाड़ी ": 3485,
    "मान्य": 3486,
    "सरकार के ": 3487,
    "ैंड": 3488,
    "प्रबंध": 3489,
    "बिहार": 3490,
    "बाब": 3491,
    "दै": 3492,
    "्या क": 3493,
    "महत्वपूर्ण ": 3494,
    "उपभो": 3495,
    "चर्": 3496,
    " जहां ": 3497,
    "नहीं आ": 3498,
    "मेडिक": 3499,
    "नीति ": 3500,
    "ीमत ": 3501,
    "ट्रंप": 3502,
    " सित": 3503,
    " किया जा रहा है": 3504,
    " जु": 3505,
    "उनको ": 3506,
    "इलेक्": 3507,
    "कों के ": 3508,
    "विराट": 3509,
    "सभा में ": 3510,
    "हूं ": 3511,
    "आठ": 3512,
    "से जु": 3513,
    " कंपनिय": 3514,
    "स्ताव": 3515,
    "ति का ": 3516,
    "साह": 3517,
    "अंतर्": 3518,
    "उन्होंने क": 3519,
    " बना ": 3520,
    "ताल ": 3521,
    "गया है कि ": 3522,
    "पारी ": 3523,
    " करती ": 3524,
    "मौजूद": 3525,
    "दाद": 3526,
    " में भी ": 3527,
    "न्या": 3528,
    " जिससे ": 3529,
    "तुम ": 3530,
    "डाउन": 3531,
    " की गई है": 3532,
    "बने": 3533,
    "चंद": 3534,
    "में कई ": 3535,
    "कों में ": 3536,
    "बेहद ": 3537,
    "भले ": 3538,
    "नौकरी ": 3539,
    "लोच": 3540,
    "शन के ": 3541,
    "निर": 3542,
    "हो गया": 3543,
    "परिजन": 3544,
    "ड्राइ": 3545,
    "फैसल": 3546,
    "ांच्या ": 3547,
    "बाजार": 3548,
    "मुस्लिम ": 3549,
    "नवा": 3550,
    " जिसे ": 3551,
    "चर": 3552,
    "शायद ": 3553,
    "ी की क": 3554,
    "थित ": 3555,
    "ता है तो ": 3556,
    "होने की ": 3557,
    "खोल": 3558,
    "हित्य": 3559,
    "रहा था ": 3560,
    "जिला": 3561,
    " कर रहे हैं ": 3562,
    "पेय": 3563,
    "मंत्रालय": 3564,
    "दिसंब": 3565,
    "राण": 3566,
    "जीएस": 3567,
    "चर्चा ": 3568,
    " किया जाता है": 3569,
    "ली के ": 3570,
    "अध्या": 3571,
    "ों के बीच": 3572,
    "ा क्षेत्र": 3573,
    "प्रवेश": 3574,
    "जा रहे हैं": 3575,
    "निर्धार": 3576,
    "धम": 3577,
    "इन्हें ": 3578,
    "घोट": 3579,
    "लक्ष्य": 3580,
    "खड़": 3581,
    "हिमाचल": 3582,
    "संपर्": 3583,
    "शामिल हैं": 3584,
    "ड्यू": 3585,
    "तीय": 3586,
    "यात्रा ": 3587,
    "शही": 3588,
    "चीन ": 3589,
    "ने कहा है कि ": 3590,
    "ा कहना है कि ": 3591,
    "ंज": 3592,
    "आया है": 3593,
    "डॉल": 3594,
    "यं ": 3595,
    " कारण ": 3596,
    "ट को ": 3597,
    "माइ": 3598,
    "डां": 3599,
    "प्रयास": 3600,
    " पुलिस ने ": 3601,
    "में कुछ ": 3602,
    "वेस्ट": 3603,
    "दस ": 3604,
    "विरोधी ": 3605,
    "मामले": 3606,
    " सामान": 3607,
    "दिल्ली के ": 3608,
    "रो ": 3609,
    "ण्": 3610,
    "लेकिन क": 3611,
    "मौजूदा ": 3612,
    " साइ": 3613,
    "सत": 3614,
    "स्थ्य ": 3615,
    "सिंग": 3616,
    "ाजिक ": 3617,
    "मुद्द": 3618,
    "थम ": 3619,
    "द्द": 3620,
    "छो": 3621,
    "बनाकर ": 3622,
    "हुए हैं": 3623,
    "ध्": 3624,
    "प्रदेश के ": 3625,
    "लव": 3626,
    " मैच": 3627,
    "उपभोक्": 3628,
    "ताव": 3629,
    "विजे": 3630,
    "चां": 3631,
    "पौ": 3632,
    "वरण": 3633,
    "आयोजित ": 3634,
    "आंक": 3635,
    " करण्या": 3636,
    "अक्सर ": 3637,
    "ा किया है": 3638,
    " कित": 3639,
    " कांग्रेस": 3640,
    "शर": 3641,
    " का नाम ": 3642,
    "े हैं": 3643,
    "सहाय": 3644,
    "्रीन ": 3645,
    "भेज ": 3646,
    "रहने वाले ": 3647,
    "प्रमुख ": 3648,
    "प्रयोग": 3649,
    "होकर ": 3650,
    "रख ": 3651,
    "खत": 3652,
    " सुरक्ष": 3653,
    "कंप": 3654,
    "थि ": 3655,
    "है लेकिन ": 3656,
    "ऑनलाइन ": 3657,
    "दी की ": 3658,
    "ों के ब": 3659,
    "अवसर ": 3660,
    "आंख": 3661,
    "संबंधित ": 3662,
    " बॉ": 3663,
    "शॉ": 3664,
    "भागी": 3665,
    "एक बार फिर ": 3666,
    "आतंकी ": 3667,
    " पंचाय": 3668,
    "पुरुष": 3669,
    " ब्र": 3670,
    "उल्लेख": 3671,
    "इस्ती": 3672,
    "बेट": 3673,
    "लाभ ": 3674,
    "इजा": 3675,
    " करेगी": 3676,
    "भ ": 3677,
    "भोज": 3678,
    "देते हुए ": 3679,
    "ट्स": 3680,
    "मुलाकात": 3681,
    " बत": 3682,
    "ल्प ": 3683,
    " कई": 3684,
    " की गई": 3685,
    "मौत": 3686,
    "ाती ": 3687,
    "आवेदन": 3688,
    "लो ": 3689,
    "लोगों का ": 3690,
    " जिसके ": 3691,
    "आपूर्": 3692,
    " से ही ": 3693,
    "ानी से ": 3694,
    "खर ": 3695,
    " कर्मचार": 3696,
    "शामिल हो": 3697,
    "सिटी ": 3698,
    "निर्वाच": 3699,
    "इलाज": 3700,
    "खराब": 3701,
    "दिए": 3702,
    "चंडीगढ़": 3703,
    "डर": 3704,
    "दिग्": 3705,
    "बिग": 3706,
    "ग्रहण": 3707,
    " सचिव ": 3708,
    " सदस्य": 3709,
    "एक प्र": 3710,
    "अफ्री": 3711,
    "जमकर ": 3712,
    "गुरुवार को ": 3713,
    " किया और ": 3714,
    "सून ": 3715,
    "खुद को ": 3716,
    "यूरो": 3717,
    "शुरू कर ": 3718,
    "भाषा ": 3719,
    " के बावजूद ": 3720,
    "नू": 3721,
    "भारत को ": 3722,
    "सरकार की ": 3723,
    "अनुमति ": 3724,
    "ट क": 3725,
    "अशो": 3726,
    "विश्वास ": 3727,
    "धिकारी ": 3728,
    "गयी": 3729,
    "अपन": 3730,
    "णे ": 3731,
    "दिय": 3732,
    "सीएम ": 3733,
    "ी के लिए ": 3734,
    "रक्षा ": 3735,
    " हिंद": 3736,
    "सड़क": 3737,
    "ें तो ": 3738,
    "हिंदी ": 3739,
    "श्म": 3740,
    "बेच": 3741,
    "प्रकार": 3742,
    "आज भी ": 3743,
    " के कारण": 3744,
    "सांसद ": 3745,
    "अभी तक ": 3746,
    "इसके साथ ही ": 3747,
    "बैठक ": 3748,
    " संस्थ": 3749,
    "ाते हुए": 3750,
    "मैच ": 3751,
    "भाजपा के ": 3752,
    "आकर्": 3753,
    "ियों और ": 3754,
    "बीच ": 3755,
    "आगामी ": 3756,
    "सुनवाई": 3757,
    "जरीवाल": 3758,
    "ता था ": 3759,
    "नल में ": 3760,
    "तेजी से ": 3761,
    "देव ": 3762,
    "संद ": 3763,
    "इलाके में ": 3764,
    "सीसी": 3765,
    "होने ": 3766,
    "्यो": 3767,
    "प्तान ": 3768,
    "विधानसभा चुनाव": 3769,
    "जी की ": 3770,
    "सिए": 3771,
    "ही है": 3772,
    " हाल": 3773,
    "अनुभव": 3774,
    " प्रस": 3775,
    " साब": 3776,
    "पर्या": 3777,
    "मारी ": 3778,
    " लाख ": 3779,
    "े का ": 3780,
    "नीय": 3781,
    "दूसरे": 3782,
    "निर्णय": 3783,
    "आजाद": 3784,
    "हफ्": 3785,
    "मेर": 3786,
    "यहाँ": 3787,
    " सीट": 3788,
    "छोटी ": 3789,
    "टी की ": 3790,
    "केश": 3791,
    "चुनावी ": 3792,
    " स्थित ": 3793,
    "बंगाल": 3794,
    "माण ": 3795,
    "बेटी ": 3796,
    "ज पर ": 3797,
    "निकल ": 3798,
    "भार ": 3799,
    " हर": 3800,
    "विवे": 3801,
    " फीसदी ": 3802,
    "ा की": 3803,
    " से अधिक ": 3804,
    " होती है": 3805,
    " के कार्य": 3806,
    "गरीब": 3807,
    " सिंह ने ": 3808,
    "भूमि ": 3809,
    "प्राथम": 3810,
    "बाजार में ": 3811,
    "यूनिवर्": 3812,
    "मुख ": 3813,
    "ेगा ": 3814,
    "ालय ने ": 3815,
    "तरह की ": 3816,
    "ुक ": 3817,
    " कार्रवाई": 3818,
    " जनता ": 3819,
    "झट": 3820,
    " हुई": 3821,
    "वायरल": 3822,
    "इंजी": 3823,
    "ठा ": 3824,
    "से में ": 3825,
    "बीएस": 3826,
    "छोड़ ": 3827,
    "राजी": 3828,
    "मोहम्म": 3829,
    "ना और ": 3830,
    "इतने ": 3831,
    "शीर्ष": 3832,
    "पुलिस को ": 3833,
    "जांच ": 3834,
    "जरूर ": 3835,
    "ियों पर ": 3836,
    "एसो": 3837,
    "शिक्षण": 3838,
    "अथ": 3839,
    "हानी ": 3840,
    "गया कि ": 3841,
    "यहाँ ": 3842,
    "वां ": 3843,
    "स्तर पर ": 3844,
    "चले": 3845,
    "नहीं कर": 3846,
    "तहत": 3847,
    "क्शन": 3848,
    "आकर ": 3849,
    "थि": 3850,
    " पूछ": 3851,
    "होने वाले ": 3852,
    "वाहन ": 3853,
    "याचिका ": 3854,
    "्स ": 3855,
    "इस दौरान": 3856,
    "ाण": 3857,
    "ात्मक": 3858,
    " समू": 3859,
    "बारी ": 3860,
    "चाहे ": 3861,
    "वाण": 3862,
    "िज": 3863,
    "िर ": 3864,
    "ातर ": 3865,
    "ाधी": 3866,
    "वैश्": 3867,
    "खूबसू": 3868,
    "एंट": 3869,
    "आहेत": 3870,
    " कप": 3871,
    "शुरुआत": 3872,
    "तलाश": 3873,
    "जा रहे ": 3874,
    "अनेक ": 3875,
    "आधार ": 3876,
    "र्जी ": 3877,
    " पांच": 3878,
    " मिले": 3879,
    "ताछ": 3880,
    "खबर": 3881,
    "ंडर ": 3882,
    "पुलिस के ": 3883,
    " पहली ": 3884,
    "रामद": 3885,
    "हूँ": 3886,
    "ाले ": 3887,
    "तम": 3888,
    "इमर": 3889,
    "्योंकि": 3890,
    "अके": 3891,
    "बड़ा ": 3892,
    "वाह ": 3893,
    "वस्तु": 3894,
    "वार की ": 3895,
    "नें ": 3896,
    "ज से ": 3897,
    "सलमान ": 3898,
    "मुसलमान": 3899,
    "सिय": 3900,
    "वं": 3901,
    "बदल ": 3902,
    "हालांकि": 3903,
    "इंस्ट": 3904,
    " पेश": 3905,
    "चौधरी ": 3906,
    "जी के ": 3907,
    "रोजगार ": 3908,
    "ना का ": 3909,
    "मिश्र": 3910,
    "म का ": 3911,
    "व्र": 3912,
    "अनुर": 3913,
    "माँ": 3914,
    "ेंगे ": 3915,
    "बढ़ा": 3916,
    "आश": 3917,
    " कॉले": 3918,
    "खार": 3919,
    "नारे ": 3920,
    "द्दी": 3921,
    "जिले के ": 3922,
    "सचिव ": 3923,
    "दें": 3924,
    "ठाकु": 3925,
    "इरा": 3926,
    "ंडा ": 3927,
    "वकी": 3928,
    "कों ": 3929,
    "बहुत ही ": 3930,
    "ल क": 3931,
    "मस्": 3932,
    "व्यापार ": 3933,
    " प्रबंध": 3934,
    "गतिविध": 3935,
    "नाराय": 3936,
    "भारत ने ": 3937,
    "मांग ": 3938,
    "राज्य के ": 3939,
    "बंद ": 3940,
    "तक की ": 3941,
    "प्रदेश में ": 3942,
    "वेश ": 3943,
    "जुट": 3944,
    "धा": 3945,
    "निदेशक ": 3946,
    "नाय": 3947,
    "दक्षिण": 3948,
    " समारो": 3949,
    "बीते ": 3950,
    "ी कै": 3951,
    " हमारे ": 3952,
    "आधार पर ": 3953,
    "रास्ता ": 3954,
    "गांध": 3955,
    " पत्र ": 3956,
    "श्रेष्ठ": 3957,
    "अमित ": 3958,
    "इंडिय": 3959,
    "वायु": 3960,
    "नवी": 3961,
    "टेक्": 3962,
    "विशेषज्ञ": 3963,
    "गया था ": 3964,
    "माहौ": 3965,
    " की प्र": 3966,
    "फिर भी ": 3967,
    "ाना चाह": 3968,
    "आदेश": 3969,
    "इका": 3970,
    "राब ": 3971,
    "निशाना ": 3972,
    "फैसले": 3973,
    "पता चल": 3974,
    "मदद से ": 3975,
    " स्वास्थ्य": 3976,
    "यह क": 3977,
    " होगी": 3978,
    " प्रदान": 3979,
    "ा कह": 3980,
    "नी को ": 3981,
    "काउंट": 3982,
    "हिं": 3983,
    "नाम से ": 3984,
    "न हो ": 3985,
    "स्थानीय ": 3986,
    "सहित ": 3987,
    "रंग ": 3988,
    "भर्ती ": 3989,
    " पाकिस्तान": 3990,
    "पन्न ": 3991,
    "दिया गया": 3992,
    "जा रहा है कि ": 3993,
    "शत": 3994,
    "नदी ": 3995,
    "ट्टी ": 3996,
    " बन ": 3997,
    "द्योगिक": 3998,
    "डू": 3999,
    "इनमें ": 4000,
    "ब्यू": 4001,
    "ेगी": 4002,
    "चीनी ": 4003,
    "नजर आ ": 4004,
    "दाता ": 4005,
    "अचानक ": 4006,
    "ग्रामीण ": 4007,
    "िस": 4008,
    "मेहन": 4009,
    "दिख ": 4010,
    "ल्याण": 4011,
    "जबकि": 4012,
    "मस": 4013,
    " की जा रही है": 4014,
    "नाक ": 4015,
    "सम ": 4016,
    "चुनौती ": 4017,
    "ठाक": 4018,
    " से पहले ": 4019,
    "निपट": 4020,
    "चित्र": 4021,
    "बध": 4022,
    "पात": 4023,
    " का भी ": 4024,
    "दबाव": 4025,
    " की ओर ": 4026,
    "मुकाबले ": 4027,
    "बारा ": 4028,
    "न ही ": 4029,
    " होने की ": 4030,
    "हिसाब": 4031,
    "दुनिया में ": 4032,
    " के बे": 4033,
    "डायरे": 4034,
    "आधारित ": 4035,
    "राजधानी ": 4036,
    "ाय ": 4037,
    "में के": 4038,
    "ोई": 4039,
    "शादी": 4040,
    "इलेक्ट्र": 4041,
    "बड़े ": 4042,
    "विश्व ": 4043,
    "्रो": 4044,
    " करना चाहिए": 4045,
    "उठा ": 4046,
    "देने के लिए ": 4047,
    "मुकद": 4048,
    " कहीं ": 4049,
    " बना": 4050,
    "शेय": 4051,
    "हिंदु": 4052,
    " कारो": 4053,
    "लगता है": 4054,
    "स्तान": 4055,
    "मंद": 4056,
    "जिसका ": 4057,
    "मजबूत ": 4058,
    "शख्": 4059,
    " में एक ": 4060,
    " के प्रति ": 4061,
    "जल्दी ": 4062,
    "उधर ": 4063,
    "शुक्": 4064,
    "न के लिए ": 4065,
    "मर ": 4066,
    " स्प": 4067,
    "अंदा": 4068,
    "ना ही ": 4069,
    "चेयर": 4070,
    "गांव के ": 4071,
    "संस्थ": 4072,
    "गैर ": 4073,
    "राष्ट्रपति": 4074,
    "गृह ": 4075,
    "हरण": 4076,
    "इंद": 4077,
    "बन्": 4078,
    "रिज": 4079,
    "ठे ": 4080,
    " समि": 4081,
    "इन दिनों ": 4082,
    " पंजा": 4083,
    "बेहतरी": 4084,
    "अभियान": 4085,
    "हाइ": 4086,
    "पुर के ": 4087,
    "बेहद": 4088,
    "ना है कि ": 4089,
    "राहत ": 4090,
    "ट्स ": 4091,
    "अखिले": 4092,
    "विरु": 4093,
    "लगाकर ": 4094,
    "श्रेण": 4095,
    " की एक ": 4096,
    "ाजिक": 4097,
    "नशी": 4098,
    " स्तर पर ": 4099,
    "हो सकती है": 4100,
    "देने ": 4101,
    "दूध": 4102,
    "जिले में ": 4103,
    "उल": 4104,
    "म को ": 4105,
    "व्यवसाय": 4106,
    "आग ": 4107,
    "ों के बीच ": 4108,
    " के मुताबिक ": 4109,
    "ूं": 4110,
    "खात": 4111,
    "जल्द ही ": 4112,
    "उतार": 4113,
    "माई": 4114,
    "ती थी": 4115,
    "रहते हैं": 4116,
    "लिमि": 4117,
    "मतलब ": 4118,
    "छत्तीसगढ़": 4119,
    "सारी ": 4120,
    "इस मौके पर ": 4121,
    "बाबा ": 4122,
    " सिद्ध": 4123,
    "आप अपने ": 4124,
    "ठि": 4125,
    "वहां": 4126,
    "त्येक ": 4127,
    "जरूरत": 4128,
    "आदेश ": 4129,
    "सीमा ": 4130,
    "ेंट ": 4131,
    "फोर्": 4132,
    "ळी ": 4133,
    "निश्चित ": 4134,
    "शिमला ": 4135,
    "रास": 4136,
    "दी थी": 4137,
    "ा कु": 4138,
    " कर लिया ": 4139,
    "लाग": 4140,
    "ति से ": 4141,
    " के सं": 4142,
    "निष्": 4143,
    "वृद्धि ": 4144,
    "जूद": 4145,
    "अधी": 4146,
    "ृत": 4147,
    "डि़": 4148,
    "नहीं कर ": 4149,
    "ँच": 4150,
    "बैठे ": 4151,
    " सहित ": 4152,
    "ा किया": 4153,
    "जेक्ट": 4154,
    "्रिय": 4155,
    "धू": 4156,
    "सांसद": 4157,
    "क्रे": 4158,
    "थो": 4159,
    "निवार": 4160,
    " करनी ": 4161,
    "ताक": 4162,
    "ने के कारण ": 4163,
    "गुस्": 4164,
    "बीर ": 4165,
    "माल ": 4166,
    "नहीं कर सक": 4167,
    "से ही ": 4168,
    "आता है": 4169,
    "आयोजन": 4170,
    "सारे ": 4171,
    "भेजा ": 4172,
    " सुरक्षा ": 4173,
    "ों का क": 4174,
    "भारत का ": 4175,
    " पूर": 4176,
    "मैन ": 4177,
    "मिले ": 4178,
    "गांधी": 4179,
    " करोड़ रुपये": 4180,
    "ने की क": 4181,
    "तहसी": 4182,
    "ड में ": 4183,
    "वक्त": 4184,
    "मिली": 4185,
    " स्थिति ": 4186,
    "वार्ड": 4187,
    "आखिरी ": 4188,
    "लोकप्रिय": 4189,
    " के चलते ": 4190,
    "अब तक": 4191,
    "सेवा": 4192,
    "टी में ": 4193,
    "छे": 4194,
    "जाहि": 4195,
    "शंकर ": 4196,
    "प्रत्या": 4197,
    "पाय": 4198,
    "शिकार ": 4199,
    " केंद्र": 4200,
    "यूपी": 4201,
    "साल में ": 4202,
    "ऐतिहा": 4203,
    "लिस्ट": 4204,
    "नी का ": 4205,
    "बाल ": 4206,
    " सुबह ": 4207,
    "आई है": 4208,
    "एसोसिए": 4209,
    "निगम ": 4210,
    "प्तान": 4211,
    "तरण": 4212,
    "जरिये ": 4213,
    "पहुंचे ": 4214,
    "शर्मा ने ": 4215,
    " सर्व": 4216,
    "वाही ": 4217,
    "बीजेपी": 4218,
    "वसू": 4219,
    "मोहन": 4220,
    "पैसा ": 4221,
    "स्कार": 4222,
    " के प": 4223,
    "लक्ष्म": 4224,
    "विद्यार्थ": 4225,
    "रेप": 4226,
    "योग ": 4227,
    "ंद्रीय ": 4228,
    "नक्स": 4229,
    "निभ": 4230,
    "लोगों से ": 4231,
    "ियां": 4232,
    "ई में ": 4233,
    "दिनों में ": 4234,
    "कुछ": 4235,
    "भारत और ": 4236,
    "माव": 4237,
    "ाब": 4238,
    "ी है और ": 4239,
    "हुआ था": 4240,
    "णार ": 4241,
    "जॉ": 4242,
    "भले ही ": 4243,
    "डॉलर ": 4244,
    "विद्यु": 4245,
    " बैंक": 4246,
    "फोटो": 4247,
    "दी गई है": 4248,
    "ल प": 4249,
    "आर्थिक": 4250,
    "साल की ": 4251,
    "हों ": 4252,
    "डाउनलोड": 4253,
    "होती है ": 4254,
    " सोम": 4255,
    "ध्या ": 4256,
    "आये ": 4257,
    "अब्": 4258,
    "देने का ": 4259,
    " प्रदर्शन": 4260,
    "बांग्ला": 4261,
    "ने एक ": 4262,
    "टेस्ट ": 4263,
    "ग में ": 4264,
    "आलोच": 4265,
    " करा ": 4266,
    "लॉन्च": 4267,
    "देते हैं": 4268,
    "शहीद": 4269,
    "अश्": 4270,
    "ष्टि ": 4271,
    "ाया गया है": 4272,
    "नेशनल ": 4273,
    "रखी ": 4274,
    "शप": 4275,
    "थी लेकिन ": 4276,
    "किसी ": 4277,
    "्स": 4278,
    "चम": 4279,
    "इक": 4280,
    "एक्ट्रे": 4281,
    "दिश": 4282,
    "दस्ता": 4283,
    "टक ": 4284,
    "ज्यो": 4285,
    "तन": 4286,
    "मिक": 4287,
    " कोहली ": 4288,
    "सार्": 4289,
    "जरूरी ": 4290,
    "खोज": 4291,
    "ाने और ": 4292,
    "संस्कृ": 4293,
    "प्रि": 4294,
    "निंग": 4295,
    "ने किया ": 4296,
    "राजा ": 4297,
    " सरकार के ": 4298,
    "र्य ": 4299,
    "उठा": 4300,
    "टूर्ना": 4301,
    "मेह": 4302,
    "ते क": 4303,
    "मार्के": 4304,
    "क्शन ": 4305,
    "ऐलान": 4306,
    "संपत्": 4307,
    "सरकार को ": 4308,
    "सकर ": 4309,
    "र्ष ": 4310,
    " प्रदेश में ": 4311,
    "योग्य": 4312,
    "डेंट": 4313,
    "तेल": 4314,
    "जैसा ": 4315,
    "मिला": 4316,
    "ब्रा": 4317,
    "दस्तावे": 4318,
    "जीवन में ": 4319,
    "त को ": 4320,
    " पोस्ट": 4321,
    "षि": 4322,
    "अरवि": 4323,
    "क क": 4324,
    "बहुत क": 4325,
    "सबसे ज्यादा ": 4326,
    " पूरा ": 4327,
    "शिवि": 4328,
    " परिवार": 4329,
    "समय में ": 4330,
    "टेड": 4331,
    "नेह": 4332,
    "दरा": 4333,
    "जारी क": 4334,
    "बहन": 4335,
    "संयुक्त ": 4336,
    "जन्म ": 4337,
    "सब ": 4338,
    "घर से ": 4339,
    "दिये ": 4340,
    "तल": 4341,
    "जिसकी ": 4342,
    "स्वामी ": 4343,
    "्राष्ट": 4344,
    "ड़क ": 4345,
    " समे": 4346,
    " मही": 4347,
    "एसडी": 4348,
    "लोगों को": 4349,
    "बनाई ": 4350,
    "प्रतिबंध": 4351,
    "जिन्हें ": 4352,
    "कुमार ": 4353,
    "स्टो": 4354,
    "तुरंत ": 4355,
    "शर्मा": 4356,
    "परिणाम": 4357,
    "इनकी ": 4358,
    "े कारण ": 4359,
    "विश्वास": 4360,
    "स्थिति में ": 4361,
    "महत्वपूर्ण": 4362,
    "एन ": 4363,
    "ऐसा कर": 4364,
    "नीत": 4365,
    "दी गई": 4366,
    "चैंप": 4367,
    "हाईकोर्": 4368,
    "ओं पर ": 4369,
    "परिषद": 4370,
    "सदी": 4371,
    " पता ": 4372,
    "ते थे ": 4373,
    "ाया गया": 4374,
    "यांनी ": 4375,
    "निर्माण ": 4376,
    " अब ": 4377,
    "खाते ": 4378,
    "जिंदगी ": 4379,
    " के बि": 4380,
    "रास्ते ": 4381,
    "निरीक्ष": 4382,
    "जान ": 4383,
    "नज़": 4384,
    "ति और ": 4385,
    "जिन्होंने ": 4386,
    "अपनी क": 4387,
    "दलित": 4388,
    "आँ": 4389,
    "रखे ": 4390,
    " का एक ": 4391,
    "आगे बढ़": 4392,
    "दिवसी": 4393,
    "शुल्क ": 4394,
    "लोगों ": 4395,
    "तेल ": 4396,
    "दिन में ": 4397,
    "जाते हैं ": 4398,
    "नयी ": 4399,
    "ाइवे": 4400,
    "जिम्मेदारी ": 4401,
    "अत्य": 4402,
    "तां": 4403,
    "राय ": 4404,
    "वजन": 4405,
    "बुद्ध": 4406,
    "हर क": 4407,
    "इस साल": 4408,
    "क्का ": 4409,
    "संख्य": 4410,
    "केत ": 4411,
    "ते है ": 4412,
    "फोन": 4413,
    "ाली": 4414,
    "फिलहाल ": 4415,
    " की जाएगी": 4416,
    "भ्रष्टाचार": 4417,
    "उद्घा": 4418,
    "गार": 4419,
    "भोपाल": 4420,
    "तरी ": 4421,
    "रिपोर्ट के ": 4422,
    "म है": 4423,
    "प्ले": 4424,
    "सन्": 4425,
    "विभिन्न": 4426,
    " जग": 4427,
    "लगता है कि ": 4428,
    "ियर ": 4429,
    "दरवा": 4430,
    "ालय में ": 4431,
    " परे": 4432,
    "का के ": 4433,
    "वि ": 4434,
    "डक": 4435,
    "वृत्": 4436,
    "सव": 4437,
    "स्मार्ट": 4438,
    "खास": 4439,
    "खतर": 4440,
    "तुम": 4441,
    "लोक ": 4442,
    "दुष्": 4443,
    " मन": 4444,
    "लौट": 4445,
    "गौरतलब है कि ": 4446,
    "भूमिक": 4447,
    "फूल": 4448,
    "से ज्यादा ": 4449,
    "देश को ": 4450,
    "आईए": 4451,
    "नगर": 4452,
    "तमाम ": 4453,
    "पृ": 4454,
    "डिग्री ": 4455,
    "सुबह": 4456,
    "ार से ": 4457,
    "पैसे ": 4458,
    "तस्वीर ": 4459,
    "ें और ": 4460,
    "ने को": 4461,
    "पीट": 4462,
    "आईसी": 4463,
    "बच्चों को ": 4464,
    "ये भी ": 4465,
    " स्था": 4466,
    "डिया ": 4467,
    "उतर": 4468,
    "एक प": 4469,
    "हो रहा है": 4470,
    "मुद्दे पर ": 4471,
    "ा करे": 4472,
    "ंख": 4473,
    " समर्थ": 4474,
    "मुफ्": 4475,
    "शादी ": 4476,
    "खुल": 4477,
    "मरा": 4478,
    "पहु": 4479,
    "उनमें ": 4480,
    "ाया था": 4481,
    "फिल्म में ": 4482,
    "लगाई ": 4483,
    "जिसके बाद ": 4484,
    "ल्स ": 4485,
    "होंगे ": 4486,
    "ने इस ": 4487,
    "देवी": 4488,
    "ऑपरे": 4489,
    "ठो": 4490,
    "निवास": 4491,
    "फाइनल में ": 4492,
    "जम्मूकश्मी": 4493,
    "नकार": 4494,
    "लंद": 4495,
    "िंग ": 4496,
    "अक्टूब": 4497,
    "ाओं को ": 4498,
    "पूछताछ": 4499,
    " सोच": 4500,
    "मौत ": 4501,
    "पोर्ट": 4502,
    "बिक": 4503,
    "ारोबार": 4504,
    "खंड ": 4505,
    "ाने वाल": 4506,
    "लंघ": 4507,
    "उसके बाद ": 4508,
    "जंग": 4509,
    " हुए": 4510,
    "टेली": 4511,
    "ों में भी ": 4512,
    "सेवा ": 4513,
    " कर्": 4514,
    "धारा ": 4515,
    " कारण": 4516,
    " सीमा ": 4517,
    "हैं जो ": 4518,
    "एजेंसी ": 4519,
    " कोई भी ": 4520,
    "ीप": 4521,
    " करने वाली ": 4522,
    "प्रकाश ": 4523,
    "आदित्य": 4524,
    "शक्ति ": 4525,
    "शाम ": 4526,
    "घूम": 4527,
    "खड़े ": 4528,
    "दुनिया के ": 4529,
    "िलोमीटर ": 4530,
    "नारा": 4531,
    "ए गए ": 4532,
    " सेवा": 4533,
    "झु": 4534,
    "आनंद": 4535,
    "टौ": 4536,
    " के अ": 4537,
    "ब्या": 4538,
    "दिशा ": 4539,
    "जता": 4540,
    "यात": 4541,
    "महिल": 4542,
    " बैठ": 4543,
    "स्तर ": 4544,
    "सत्": 4545,
    "खाली ": 4546,
    "कुल": 4547,
    "ों के अनुसार ": 4548,
    "ांत": 4549,
    "नहीं हैं": 4550,
    "कों ने ": 4551,
    "खिल": 4552,
    "ज्यादातर ": 4553,
    "नरेंद्र मोदी": 4554,
    "अपे": 4555,
    " से भी ": 4556,
    " बो": 4557,
    "मौत हो गई": 4558,
    "एंगे": 4559,
    " की मांग": 4560,
    "सफल ": 4561,
    "स्ती": 4562,
    "रहती है": 4563,
    "सब्": 4564,
    "चोट": 4565,
    "इंडियन ": 4566,
    " के लिये ": 4567,
    "ाओं में ": 4568,
    "मशी": 4569,
    "रूक": 4570,
    "मनुष": 4571,
    " कर लिया है": 4572,
    "माने ": 4573,
    "क्रो": 4574,
    "ल्ल": 4575,
    "चार्य": 4576,
    "तरह के ": 4577,
    " की अ": 4578,
    "न है": 4579,
    "टिंग ": 4580,
    "आवश्यक ": 4581,
    "फंड": 4582,
    "कल ": 4583,
    "एटी": 4584,
    "विज्ञाप": 4585,
    "दिन पहले ": 4586,
    "भारतीय जनता ": 4587,
    " स्कूल ": 4588,
    " क्षेत्र में ": 4589,
    "उल्लंघ": 4590,
    "जाने पर ": 4591,
    "यह भी क": 4592,
    "रजि": 4593,
    "जाल": 4594,
    "रहेंगे": 4595,
    "तैनात": 4596,
    "बिक्र": 4597,
    "्यात ": 4598,
    "एप्": 4599,
    "टीम को ": 4600,
    "ढे": 4601,
    " संस्कृ": 4602,
    "मौसम": 4603,
    "ध्यान": 4604,
    " प्रदेश के ": 4605,
    " परियोज": 4606,
    " कर्मचारी ": 4607,
    " प्राप्त": 4608,
    "गुजरात ": 4609,
    " किया गया था": 4610,
    "नेटवर्": 4611,
    "परीक्षा ": 4612,
    "क्षण": 4613,
    "बैठक": 4614,
    "तीनों ": 4615,
    "गृह": 4616,
    "न्ना ": 4617,
    " आ": 4618,
    " रहा है": 4619,
    "ठीक": 4620,
    "दिक्क": 4621,
    "ने से पहले ": 4622,
    "जाता है कि ": 4623,
    "े काम": 4624,
    "ा है तो ": 4625,
    "लड़क": 4626,
    "लिक ": 4627,
    "नीति": 4628,
    "ी का": 4629,
    "एक्सप्रे": 4630,
    "जाएगी ": 4631,
    "हार्": 4632,
    "डाल ": 4633,
    "षे": 4634,
    "अंतरराष्ट्रीय": 4635,
    "सत्ता ": 4636,
    "ऊर्जा ": 4637,
    "एसएस": 4638,
    "पश्चिम ": 4639,
    "गुणव": 4640,
    "र्स": 4641,
    "मैं क": 4642,
    "रहेगी": 4643,
    "डॉक्टर ": 4644,
    "सचिव": 4645,
    "ध्यक्ष": 4646,
    "मती ": 4647,
    "हिस्से": 4648,
    "जा सकती है": 4649,
    "चेहरे ": 4650,
    "था लेकिन ": 4651,
    " की वजह से ": 4652,
    " कहा कि": 4653,
    "अली ": 4654,
    "वजह": 4655,
    "आसानी से ": 4656,
    "षद ": 4657,
    "भ्रष्टाचार ": 4658,
    "सिर्फ": 4659,
    "सकता है": 4660,
    "बे ": 4661,
    "अस्पताल ": 4662,
    "ऊदी ": 4663,
    "ांची ": 4664,
    "अरुण": 4665,
    " सम्मान": 4666,
    "प्रश्": 4667,
    " के बारे ": 4668,
    " मंदि": 4669,
    "नोटिस ": 4670,
    "शोर ": 4671,
    "गंग": 4672,
    "रद्द": 4673,
    "प्रधानमंत्र": 4674,
    "हो रही है": 4675,
    "उस समय ": 4676,
    "उन्हें क": 4677,
    "कड़": 4678,
    "सुधार": 4679,
    "दिलच": 4680,
    " प्राप्त ": 4681,
    "हैं लेकिन ": 4682,
    "मामला दर्ज": 4683,
    " प्रदेश ": 4684,
    " सी ": 4685,
    "ाओं के ": 4686,
    "बाग": 4687,
    "हिक ": 4688,
    "अमेरिका ": 4689,
    "दुख": 4690,
    "गार ": 4691,
    "गल ": 4692,
    "इंच": 4693,
    "जाने से ": 4694,
    " की बात ": 4695,
    "ली का ": 4696,
    "णाल": 4697,
    "पहच": 4698,
    "अरब ": 4699,
    "न को": 4700,
    "ाया जाता है": 4701,
    "शुक्रवार ": 4702,
    "प्रेम": 4703,
    "गई और ": 4704,
    "वय": 4705,
    " साल ": 4706,
    "हथिय": 4707,
    "रोहित ": 4708,
    "भरा ": 4709,
    "बातें ": 4710,
    "आम आदमी ": 4711,
    "ा क्योंकि ": 4712,
    "हिरास": 4713,
    "रहे थे ": 4714,
    "टूर्नामेंट": 4715,
    "प्रस्तु": 4716,
    "युक्त": 4717,
    "फॉर्म": 4718,
    "जाय ": 4719,
    "ी कोई ": 4720,
    "औस": 4721,
    " पुलिस": 4722,
    "आकर्ष": 4723,
    "दास ": 4724,
    "लाकर ": 4725,
    "मन में ": 4726,
    " जिसका ": 4727,
    "शो ": 4728,
    "र्मचारी ": 4729,
    "अह": 4730,
    "गिरावट ": 4731,
    "देश का ": 4732,
    " सिर्फ": 4733,
    "मरीज": 4734,
    "विकल्प": 4735,
    "प्रभाव": 4736,
    "प्रदर्श": 4737,
    "ियन": 4738,
    "ंदा ": 4739,
    "ात्कार": 4740,
    "टेल ": 4741,
    "आगे क": 4742,
    "सामना करना पड़": 4743,
    "मंजूरी ": 4744,
    "बढ": 4745,
    "उत्तराखंड": 4746,
    "डब्ल": 4747,
    "सम्म": 4748,
    "नियुक्त": 4749,
    " सही ": 4750,
    "फ्रें": 4751,
    "हस्त": 4752,
    "मिक ": 4753,
    "हिन्दू": 4754,
    "नोटबंद": 4755,
    "एक साल": 4756,
    "नई दिल्ली": 4757,
    "बाकी ": 4758,
    "राजनीतिक": 4759,
    "स्कूल ": 4760,
    " की जानकारी ": 4761,
    "सहम": 4762,
    "देंगे": 4763,
    "नये ": 4764,
    "प्रक्रिया ": 4765,
    " करने और ": 4766,
    "होने पर ": 4767,
    "बौ": 4768,
    "दक्षिण अफ्री": 4769,
    " कुल": 4770,
    " हासिल": 4771,
    "हालत ": 4772,
    "ह के ": 4773,
    "में कै": 4774,
    "्र में ": 4775,
    "वर्ल्ड": 4776,
    "ामुळे ": 4777,
    "ओवर में ": 4778,
    "ियाँ": 4779,
    " पूर्व ": 4780,
    "मरा ": 4781,
    "शुरू हो": 4782,
    "र किया ": 4783,
    "जाति ": 4784,
    "अधीक्ष": 4785,
    "न्स ": 4786,
    "वर्षीय ": 4787,
    "दिमा": 4788,
    "भेद": 4789,
    "धमकी ": 4790,
    " महिला": 4791,
    "विजय ": 4792,
    "यह कह": 4793,
    "ामा ": 4794,
    " पार्": 4795,
    "जमान": 4796,
    "ारोबार ": 4797,
    "ीन": 4798,
    " पाठ": 4799,
    "चेताव": 4800,
    "शुरुआत ": 4801,
    " सरकार की ": 4802,
    "होता ": 4803,
    "जाए तो ": 4804,
    "किल": 4805,
    "हूर ": 4806,
    " सकते हैं ": 4807,
    "ा कै": 4808,
    "अनुमान": 4809,
    "द्वि": 4810,
    "फैल": 4811,
    "बाय": 4812,
    "इसके लिए": 4813,
    "सुनी": 4814,
    "ट्रि": 4815,
    "हरि": 4816,
    "शायद": 4817,
    "चित": 4818,
    "विश्ले": 4819,
    "बढ़ो": 4820,
    " पानी ": 4821,
    "वर्मा ": 4822,
    "तमिल": 4823,
    "अल्": 4824,
    "ों को लेकर ": 4825,
    "नियम ": 4826,
    "आखिर ": 4827,
    "गये": 4828,
    "इंसान": 4829,
    "वजनिक ": 4830,
    "क्ट ": 4831,
    "दोबारा ": 4832,
    "हो तो ": 4833,
    " करने के बाद ": 4834,
    "नाई ": 4835,
    "ज का ": 4836,
    "दूरी ": 4837,
    "ुक्त ": 4838,
    "आज के ": 4839,
    "तों में ": 4840,
    " से ज्यादा ": 4841,
    "ामि": 4842,
    "गयी है": 4843,
    "अंतर्गत ": 4844,
    "टाई": 4845,
    "सी का ": 4846,
    "उस पर ": 4847,
    "अंजाम ": 4848,
    "ना भी ": 4849,
    "आया": 4850,
    "जरूरी है": 4851,
    "अभिने": 4852,
    "स्ट्री": 4853,
    "विपक्षी ": 4854,
    "बांध": 4855,
    "अभियान ": 4856,
    "ी कु": 4857,
    " समझौ": 4858,
    "ानु": 4859,
    "च्चे ": 4860,
    "डिजा": 4861,
    " संस्थान": 4862,
    "ा के लिए ": 4863,
    "चौह": 4864,
    "घोषणा की ": 4865,
    "देते हुए": 4866,
    "स्वीकार": 4867,
    "फां": 4868,
    "िये": 4869,
    "दाखिल": 4870,
    "न्तु ": 4871,
    "्रवाई ": 4872,
    "अंध": 4873,
    "तियोगि": 4874,
    " करता है ": 4875,
    "घायल हो ": 4876,
    "मुद्दा ": 4877,
    "विवाह": 4878,
    "ूबर ": 4879,
    "लड़की ": 4880,
    "गिर ": 4881,
    "ड़ में ": 4882,
    "मिता": 4883,
    "हिसाब से ": 4884,
    "हना है कि": 4885,
    "क स": 4886,
    "आबाद": 4887,
    "ों को भी ": 4888,
    "थे कि ": 4889,
    "फिलहाल": 4890,
    " बात": 4891,
    "ेय": 4892,
    "अनिल": 4893,
    "िर": 4894,
    "ियो": 4895,
    "डिजि": 4896,
    "झारखंड": 4897,
    "ध्य ": 4898,
    "फसल": 4899,
    " हो सकता है": 4900,
    "बान": 4901,
    "टीम के ": 4902,
    "घुस": 4903,
    "पेट्रोल": 4904,
    " ही क": 4905,
    "वर्ष की ": 4906,
    "भी कर ": 4907,
    " हो गया है": 4908,
    "दिया और ": 4909,
    "हमला ": 4910,
    "ों से क": 4911,
    "वाही": 4912,
    "हरे": 4913,
    "सोशल मीडिया पर ": 4914,
    "रही थी ": 4915,
    "धार्मिक ": 4916,
    "ॉले": 4917,
    " से लेकर ": 4918,
    "घर पर ": 4919,
    "पल ": 4920,
    "इस बारे में ": 4921,
    "निस": 4922,
    "्रॉ": 4923,
    "टाय": 4924,
    "ियों के लिए ": 4925,
    "पोरे": 4926,
    "ने बताया कि": 4927,
    "वास्तव में ": 4928,
    "दौर में ": 4929,
    "क्के ": 4930,
    "डब्ल्यू": 4931,
    "घर के ": 4932,
    "यह एक ": 4933,
    "सन": 4934,
    " बहुत ": 4935,
    "उद्य": 4936,
    "े कार्य": 4937,
    "टर पर ": 4938,
    "जा सके": 4939,
    "व्यू": 4940,
    "वाताव": 4941,
    "ली है": 4942,
    "ारंभ": 4943,
    "अरब": 4944,
    "कट": 4945,
    "उम्र ": 4946,
    "मित्र": 4947,
    "ानून ": 4948,
    "इंतजार": 4949,
    "ृष्ण": 4950,
    "उद्देश्य": 4951,
    "थोड़": 4952,
    "द्रो": 4953,
    "स्त्र ": 4954,
    "अभी भी ": 4955,
    "ार्थी ": 4956,
    " किया जा सकता है": 4957,
    "फुट": 4958,
    "बरामद": 4959,
    "सम्मेल": 4960,
    "जिद": 4961,
    " साफ": 4962,
    "होते हैं": 4963,
    "प्रकार ": 4964,
    "धिक ": 4965,
    "बीआई ": 4966,
    "फ़ ": 4967,
    "दीप ": 4968,
    " करना है": 4969,
    "वृद्धि": 4970,
    "दिशा में ": 4971,
    "निकाल ": 4972,
    "मोदी ने ": 4973,
    " करेगा ": 4974,
    "हमले": 4975,
    "ब्ला": 4976,
    "हारी ": 4977,
    " का आयोजन": 4978,
    "ज को ": 4979,
    "ृत ": 4980,
    "शनिवार ": 4981,
    "न्यायाधी": 4982,
    "आधु": 4983,
    "नों में ": 4984,
    "टैक्स ": 4985,
    "मधु": 4986,
    "धीरे": 4987,
    "दली": 4988,
    "निरा": 4989,
    "हफ्ते ": 4990,
    "किंग ": 4991,
    "जत": 4992,
    "ना को ": 4993,
    " किया था ": 4994,
    "सुख": 4995,
    "टेड ": 4996,
    "फेसबुक": 4997,
    "ती की ": 4998,
    " करता ": 4999
  },
  "index_to_token": {
    "0": "<UNK>",
    "1": " ",
    "2": "ँ",
    "3": "ं",
    "4": "ः",
    "5": "अ",
    "6": "आ",
    "7": "इ",
    "8": "ई",
    "9": "उ",
    "10": "ऊ",
    "11": "ऋ",
    "12": "ऍ",
    "13": "ऎ",
    "14": "ए",
    "15": "ऐ",
    "16": "ऑ",
    "17": "ऒ",
    "18": "ओ",
    "19": "औ",
    "20": "क",
    "21": "ख",
    "22": "ग",
    "23": "घ",
    "24": "ङ",
    "25": "च",
    "26": "छ",
    "27": "ज",
    "28": "झ",
    "29": "ञ",
    "30": "ट",
    "31": "ठ",
    "32": "ड",
    "33": "ढ",
    "34": "ण",
    "35": "त",
    "36": "थ",
    "37": "द",
    "38": "ध",
    "39": "न",
    "40": "ऩ",
    "41": "प",
    "42": "फ",
    "43": "ब",
    "44": "भ",
    "45": "म",
    "46": "य",
    "47": "र",
    "48": "ऱ",
    "49": "ल",
    "50": "ळ",
    "51": "व",
    "52": "श",
    "53": "ष",
    "54": "स",
    "55": "ह",
    "56": "़",
    "57": "ऽ",
    "58": "ा",
    "59": "ि",
    "60": "ी",
    "61": "ु",
    "62": "ू",
    "63": "ृ",
    "64": "ॄ",
    "65": "ॅ",
    "66": "ॆ",
    "67": "े",
    "68": "ै",
    "69": "ॉ",
    "70": "ॊ",
    "71": "ो",
    "72": "ौ",
    "73": "्",
    "74": "ॐ",
    "75": "॑",
    "76": "॒",
    "77": "॔",
    "78": "क़",
    "79": "ख़",
    "80": "ग़",
    "81": "ज़",
    "82": "ड़",
    "83": "ढ़",
    "84": "फ़",
    "85": "य़",
    "86": "ॢ",
    "87": "॥",
    "88": "०",
    "89": "१",
    "90": "२",
    "91": "३",
    "92": "४",
    "93": "५",
    "94": "६",
    "95": "७",
    "96": "८",
    "97": "९",
    "98": "॰",
    "99": "ॲ",
    "100": "ॽ",
    "101": " क",
    "102": "े ",
    "103": "ी ",
    "104": "ा ",
    "105": "र ",
    "106": "ं ",
    "107": " के ",
    "108": "है",
    "109": "मे",
    "110": "्र",
    "111": " स",
    "112": "ार",
    "113": "में ",
    "114": "ो ",
    "115": "ान",
    "116": "्य",
    "117": "ने ",
    "118": "िय",
    "119": " की ",
    "120": " प",
    "121": "र्",
    "122": "ाल",
    "123": "क ",
    "124": "स्",
    "125": "न ",
    "126": "ों",
    "127": "त ",
    "128": " को ",
    "129": "से ",
    "130": "ि ",
    "131": "ने",
    "132": "स ",
    "133": "ा क",
    "134": "और ",
    "135": "वि",
    "136": "क्",
    "137": "िल",
    "138": "ा है",
    "139": "रा",
    "140": "ए ",
    "141": " का ",
    "142": "ार ",
    "143": "लि",
    "144": " कर",
    "145": "रह",
    "146": "ों ",
    "147": "दे",
    "148": "ाय",
    "149": "ां",
    "150": "ाम",
    "151": " में ",
    "152": "प्र",
    "153": "ात",
    "154": "भी ",
    "155": " ह",
    "156": "िक",
    "157": "ही",
    "158": "ाद",
    "159": "ले",
    "160": "ड़",
    "161": "ल ",
    "162": "ई ",
    "163": "न्",
    "164": "ंग",
    "165": " से ",
    "166": "सक",
    "167": "ह ",
    "168": "ना ",
    "169": "हु",
    "170": "ी क",
    "171": "ोग",
    "172": "ते ",
    "173": "त्",
    "174": "िया ",
    "175": "म ",
    "176": "ी है",
    "177": "नि",
    "178": "मु",
    "179": "पर ",
    "180": "वा",
    "181": "ला",
    "182": "ंद",
    "183": "ता ",
    "184": "नही",
    "185": "े क",
    "186": "ना",
    "187": "सा",
    "188": " ज",
    "189": "अप",
    "190": "क्ष",
    "191": " के लि",
    "192": "ति",
    "193": "्ट",
    "194": "हैं",
    "195": " ब",
    "196": "त्र",
    "197": " म",
    "198": "ले ",
    "199": "ता",
    "200": " प्र",
    "201": "दि",
    "202": "नहीं ",
    "203": "कर ",
    "204": "एक ",
    "205": "रि",
    "206": "हा",
    "207": " को",
    "208": "लग",
    "209": "हो",
    "210": "ुर",
    "211": "वाल",
    "212": "ही ",
    "213": "इस",
    "214": "भा",
    "215": " पर ",
    "216": "गय",
    "217": "इस ",
    "218": "देश",
    "219": " कर ",
    "220": " के ब",
    "221": "द्",
    "222": "ान ",
    "223": "नी ",
    "224": "मा",
    "225": "ित",
    "226": "िया",
    "227": " के लिए ",
    "228": "ने क",
    "229": "ब ",
    "230": "कि",
    "231": "वार",
    "232": "सं",
    "233": "ती",
    "234": "न्ह",
    "235": "आप",
    "236": "व ",
    "237": "ं क",
    "238": "नक",
    "239": "ंड",
    "240": "रो",
    "241": "बा",
    "242": "तो ",
    "243": "री",
    "244": "जि",
    "245": "ट ",
    "246": "राज",
    "247": "रे",
    "248": "ता है",
    "249": "्म",
    "250": "सी ",
    "251": "य ",
    "252": "कार",
    "253": " कि ",
    "254": "उन्ह",
    "255": "साथ",
    "256": "ा कि ",
    "257": "री ",
    "258": "हि",
    "259": "जा",
    "260": "र क",
    "261": "ली ",
    "262": "हैं ",
    "263": "सी",
    "264": "ों को ",
    "265": "ल्",
    "266": "ें ",
    "267": "भार",
    "268": "सम",
    "269": "स्थ",
    "270": "अध",
    "271": "पा",
    "272": "ग्र",
    "273": "पू",
    "274": "ों के ",
    "275": "स्त",
    "276": "नी",
    "277": "जा ",
    "278": "अन",
    "279": "जी",
    "280": " और ",
    "281": "श्",
    "282": "स्ट",
    "283": "ंत्र",
    "284": "सि",
    "285": "लोग",
    "286": "ों में ",
    "287": "सर",
    "288": "सके ",
    "289": "उनक",
    "290": "यह ",
    "291": "्या",
    "292": " कि",
    "293": "जान",
    "294": "वे",
    "295": "पु",
    "296": "रू",
    "297": "ित ",
    "298": "चु",
    "299": "ज ",
    "300": "ों की ",
    "301": "वर्",
    "302": "चा",
    "303": "मार",
    "304": " स्",
    "305": "शि",
    "306": "च्",
    "307": "ला ",
    "308": "पी",
    "309": "टी",
    "310": "अपने ",
    "311": "में क",
    "312": "के ",
    "313": "पह",
    "314": "से",
    "315": "ण ",
    "316": "वी",
    "317": "था",
    "318": "प्",
    "319": "ढ़",
    "320": "था ",
    "321": "मिल",
    "322": "ने कह",
    "323": "दी ",
    "324": "का",
    "325": "रहे ",
    "326": "मान",
    "327": " सं",
    "328": "या ",
    "329": "मै",
    "330": "हो ",
    "331": "ाद ",
    "332": "ंट",
    "333": "ली",
    "334": "सु",
    "335": "िक ",
    "336": "ये ",
    "337": "ती है",
    "338": "मह",
    "339": "द ",
    "340": "ष्ट",
    "341": "उन्हों",
    "342": "रु",
    "343": "ति ",
    "344": "एक",
    "345": "र में ",
    "346": "बी",
    "347": "दू",
    "348": "गा",
    "349": "जात",
    "350": "्या ",
    "351": "मो",
    "352": "कार ",
    "353": "लेकि",
    "354": "ंच",
    "355": "्य ",
    "356": "र्म",
    "357": "मंत्र",
    "358": " किया ",
    "359": "दो",
    "360": "दी",
    "361": "जन",
    "362": "ने वाल",
    "363": "बे",
    "364": "ती ",
    "365": "िल्",
    "366": " के साथ",
    "367": "िला",
    "368": "्री",
    "369": " हो",
    "370": "म्",
    "371": "ारी ",
    "372": "ुछ",
    "373": "के",
    "374": " करने",
    "375": "कि ",
    "376": " अ",
    "377": " सि",
    "378": "उप",
    "379": "जे",
    "380": "ार्",
    "381": "ार्य",
    "382": "मि",
    "383": "ते हैं",
    "384": "ंप",
    "385": "देख",
    "386": "मुख",
    "387": "ाने",
    "388": "ब्",
    "389": "लेकिन ",
    "390": "च ",
    "391": "ाल ",
    "392": "बत",
    "393": "व्य",
    "394": "ंध",
    "395": "ाया ",
    "396": "दर्",
    "397": "रे ",
    "398": "हां ",
    "399": "मी",
    "400": "गु",
    "401": "थी",
    "402": "फि",
    "403": "लो",
    "404": "धान",
    "405": "रा ",
    "406": "तक ",
    "407": "है ",
    "408": "रख",
    "409": "ट्र",
    "410": "ंक",
    "411": "सा ",
    "412": "ाने ",
    "413": "ंब",
    "414": "वा ",
    "415": "क्र",
    "416": "दु",
    "417": "मौ",
    "418": "टे",
    "419": "िया है",
    "420": "सू",
    "421": "ते",
    "422": "अनु",
    "423": "इसके ",
    "424": "योग",
    "425": "रहा है",
    "426": "्र ",
    "427": "हुए ",
    "428": "  ",
    "429": "अपनी ",
    "430": " सम",
    "431": "ओं",
    "432": "शा",
    "433": "बै",
    "434": "शन",
    "435": "ोट",
    "436": "ों का ",
    "437": "पे",
    "438": "एस",
    "439": "गर ",
    "440": "जी ",
    "441": "रही है",
    "442": "ानी ",
    "443": "दौ",
    "444": " के लिए",
    "445": "ों ने ",
    "446": "बि",
    "447": "बन",
    "448": "प ",
    "449": "आ ",
    "450": "ों से ",
    "451": "वह ",
    "452": "ोड़",
    "453": "यह",
    "454": "श ",
    "455": "यु",
    "456": "जाए",
    "457": "गया है",
    "458": "माम",
    "459": "अधिक",
    "460": "तक",
    "461": "मंत्री ",
    "462": "चि",
    "463": "निय",
    "464": "दिया ",
    "465": "नाम",
    "466": "गी",
    "467": "गई ",
    "468": "रुप",
    "469": " ही ",
    "470": "तरह",
    "471": "निर्",
    "472": "फ ",
    "473": "दा",
    "474": "तर",
    "475": "उन्होंने ",
    "476": "आई",
    "477": "हम",
    "478": "होग",
    "479": "ध्य",
    "480": "हर ",
    "481": "ा कि",
    "482": "ोर्",
    "483": "यो",
    "484": "डि",
    "485": "ड ",
    "486": "्ष",
    "487": "ाना ",
    "488": " हो ",
    "489": "द्ध",
    "490": "वे ",
    "491": " सु",
    "492": "यू",
    "493": "आपक",
    "494": "पहले ",
    "495": "थे",
    "496": "्यू",
    "497": "जब",
    "498": "बात",
    "499": "ाइ",
    "500": "पि",
    "501": "ते हैं ",
    "502": "श्र",
    "503": "बार ",
    "504": " सक",
    "505": "उत्",
    "506": "जु",
    "507": "शे",
    "508": "रण",
    "509": "च्च",
    "510": "जू",
    "511": "ार्ट",
    "512": "ी के ",
    "513": "उस",
    "514": "द्वार",
    "515": "ें",
    "516": "तु",
    "517": "तर ",
    "518": " के",
    "519": "खु",
    "520": "गया ",
    "521": "बंध",
    "522": "पूर्",
    "523": "लेकर ",
    "524": "उनके ",
    "525": "शुर",
    "526": "ष्",
    "527": "ग ",
    "528": "गां",
    "529": "ग्रे",
    "530": " के क",
    "531": "क्ट",
    "532": "न में ",
    "533": "ज़",
    "534": "ा कर",
    "535": "र से ",
    "536": "ने कहा कि ",
    "537": "ांच",
    "538": "ने की ",
    "539": "टी ",
    "540": "हाल",
    "541": "ा का ",
    "542": " कह",
    "543": "ों पर ",
    "544": "ारे ",
    "545": " सा",
    "546": " सर",
    "547": "जो ",
    "548": "ोल",
    "549": "चुना",
    "550": "या",
    "551": "डी",
    "552": "चल",
    "553": "परि",
    "554": "पुलि",
    "555": "पर",
    "556": "चार",
    "557": "रूप",
    "558": "त्य",
    "559": "सब",
    "560": "निक",
    "561": "थी ",
    "562": "साम",
    "563": "ज्",
    "564": "पी ",
    "565": "त्र ",
    "566": "उन्हें ",
    "567": "खिला",
    "568": "हे",
    "569": "खे",
    "570": "ची",
    "571": "से क",
    "572": "गया",
    "573": "ुछ ",
    "574": "राष्ट",
    "575": " कु",
    "576": "गि",
    "577": " के बाद ",
    "578": "शु",
    "579": "अं",
    "580": "ंह ",
    "581": "गे",
    "582": "वाद",
    "583": "भी क",
    "584": "बहु",
    "585": "वर्ष",
    "586": "ा में ",
    "587": "च्छ",
    "588": "लिए ",
    "589": "सो",
    "590": "द्वारा ",
    "591": "दौर",
    "592": "गए ",
    "593": "ैसे ",
    "594": "बाद",
    "595": "हर",
    "596": "हुंच",
    "597": "ांग्रे",
    "598": " से",
    "599": "दिल्",
    "600": "अब ",
    "601": "स्क",
    "602": "वार ",
    "603": "राज्य",
    "604": "जो",
    "605": "ात्र",
    "606": "इन ",
    "607": "त में ",
    "608": "दिन",
    "609": "ंगे",
    "610": "र पर ",
    "611": "द्य",
    "612": "विध",
    "613": "हन",
    "614": "दो ",
    "615": "भू",
    "616": "भी",
    "617": " हु",
    "618": "तो",
    "619": "मां",
    "620": "्षे",
    "621": "खा",
    "622": "ज्य",
    "623": "भारती",
    "624": "रिक",
    "625": "ड़ी ",
    "626": "बताय",
    "627": "एव",
    "628": "र्थ",
    "629": "डे",
    "630": "वार को ",
    "631": "गो",
    "632": "ने वाले ",
    "633": "बु",
    "634": "धार",
    "635": "मुख्य",
    "636": " पू",
    "637": "िला ",
    "638": "में",
    "639": "मन",
    "640": "र के ",
    "641": "स के ",
    "642": "उसक",
    "643": "और क",
    "644": "शाम",
    "645": " करने ",
    "646": "बढ़",
    "647": " जि",
    "648": "हीं ",
    "649": "का ",
    "650": "ओं ",
    "651": "ंद्र ",
    "652": " सी",
    "653": " के साथ ",
    "654": "कारी ",
    "655": " करते ",
    "656": "इसक",
    "657": "आरो",
    "658": "है कि ",
    "659": "शन ",
    "660": "न क",
    "661": "्मी",
    "662": "फिल",
    "663": "भारत",
    "664": "रहे हैं",
    "665": "जाता है",
    "666": "हू",
    "667": "श्व",
    "668": "भि",
    "669": "फ्",
    "670": "फै",
    "671": "वी ",
    "672": "शुरू",
    "673": "थे ",
    "674": "पुर",
    "675": "चार ",
    "676": "आज",
    "677": "चाहि",
    "678": "न के ",
    "679": "ूल",
    "680": "दोन",
    "681": "फिर ",
    "682": "ी की ",
    "683": "ाफ",
    "684": "की ",
    "685": "आर",
    "686": "एवं ",
    "687": "उसके ",
    "688": "आप ",
    "689": "वह",
    "690": " की क",
    "691": "देश ",
    "692": "दे ",
    "693": "क्षा ",
    "694": "भाग",
    "695": "क्त",
    "696": "ाते ",
    "697": "अध्य",
    "698": "शी",
    "699": "अव",
    "700": "उनकी ",
    "701": "चाह",
    "702": "ज्याद",
    "703": "चौ",
    "704": "जग",
    "705": "योज",
    "706": "ालय",
    "707": "तथा ",
    "708": "िल ",
    "709": "मार ",
    "710": " कार्य",
    "711": "ंग ",
    "712": "घट",
    "713": "ज्ञ",
    "714": " पु",
    "715": "ाम ",
    "716": "पा ",
    "717": "एम",
    "718": "प्रति",
    "719": "क्स",
    "720": "क्त ",
    "721": " करे",
    "722": "मत",
    "723": "बो",
    "724": "ऐसे ",
    "725": "मा ",
    "726": "नहीं",
    "727": "्रे",
    "728": "ख ",
    "729": "गा ",
    "730": "ू ",
    "731": "ने का ",
    "732": "दा ",
    "733": "तै",
    "734": "बार",
    "735": "फी",
    "736": "िये ",
    "737": "पड़",
    "738": " के बाद",
    "739": "शो",
    "740": "भाव",
    "741": "इं",
    "742": "गई",
    "743": "चे",
    "744": "उसे ",
    "745": "गी ",
    "746": " करना ",
    "747": " पा",
    "748": "जिस",
    "749": "इन",
    "750": "भाज",
    "751": "दिन ",
    "752": "हम ",
    "753": "मैं ",
    "754": "र की ",
    "755": "एं ",
    "756": "आग",
    "757": "चुनाव",
    "758": "फे",
    "759": "बच्च",
    "760": "टि",
    "761": "स ने ",
    "762": "माल",
    "763": "ियां ",
    "764": "ा है कि ",
    "765": "जार",
    "766": "जब ",
    "767": "सरकार ",
    "768": "पार्ट",
    "769": "सभ",
    "770": "वो ",
    "771": "दार ",
    "772": "सान",
    "773": " कोई ",
    "774": "यहां ",
    "775": "सल",
    "776": "डॉ",
    "777": "हा ",
    "778": "त्व",
    "779": "पै",
    "780": "स्व",
    "781": "ग्",
    "782": " पह",
    "783": "फिल्म",
    "784": "हुए",
    "785": "इंड",
    "786": "दिल्ली ",
    "787": "बद",
    "788": "ता है ",
    "789": "आपको ",
    "790": "अच्छ",
    "791": "ने से ",
    "792": "हुई ",
    "793": " के बी",
    "794": "ी को",
    "795": "ा के ",
    "796": "तार",
    "797": "स्प",
    "798": "बैठ",
    "799": "ा कर ",
    "800": "जार ",
    "801": "सार ",
    "802": "डिय",
    "803": "सद",
    "804": "ट्",
    "805": "दिया",
    "806": "अध्यक्ष",
    "807": "साल",
    "808": " का क",
    "809": "अगर ",
    "810": "राम",
    "811": "दान",
    "812": "ाव",
    "813": "वै",
    "814": "ड़े ",
    "815": "पाल",
    "816": "न की ",
    "817": "उठ",
    "818": " स्थ",
    "819": "ियों को ",
    "820": "ंह",
    "821": "र्च",
    "822": "लै",
    "823": "इससे ",
    "824": "सबसे ",
    "825": "ड़ा ",
    "826": "र को ",
    "827": "रहे",
    "828": "नौ",
    "829": "सह",
    "830": " साल",
    "831": " के प्र",
    "832": "बताया कि ",
    "833": "रही ",
    "834": "स में ",
    "835": "आज ",
    "836": "हमार",
    "837": "लोक",
    "838": "बाद ",
    "839": "न्य",
    "840": "मी ",
    "841": "पहुंच",
    "842": "बहुत ",
    "843": "नहीं है",
    "844": "उम",
    "845": "की",
    "846": "रहा ",
    "847": "ज्यादा ",
    "848": "्यों",
    "849": "वज",
    "850": "एन",
    "851": " स्ट",
    "852": "दूसर",
    "853": "ने कहा ",
    "854": "पोर्",
    "855": "बंद",
    "856": "जा सक",
    "857": "प्रदेश",
    "858": "ने के लिए ",
    "859": "स्थान",
    "860": "ले में ",
    "861": "किस्त",
    "862": "कु",
    "863": "ंगे ",
    "864": "लिख",
    "865": "ताब",
    "866": "जर ",
    "867": "लोग ",
    "868": "मुझ",
    "869": "त क",
    "870": "थ ",
    "871": " से क",
    "872": "अपना ",
    "873": "पास ",
    "874": "र्व",
    "875": "तैय",
    "876": "विका",
    "877": "ल में ",
    "878": "लिया ",
    "879": "स की ",
    "880": "वाले ",
    "881": "तह",
    "882": "ब्र",
    "883": "फो",
    "884": "वहीं ",
    "885": "चाहिए",
    "886": "उन",
    "887": "आई ",
    "888": "भे",
    "889": " परि",
    "890": " के आ",
    "891": "ाफी ",
    "892": "पुर ",
    "893": "ों को",
    "894": "हुआ ",
    "895": "अग",
    "896": "ष्ठ",
    "897": "टर ",
    "898": "फ़",
    "899": " को लेकर ",
    "900": "ुरु",
    "901": "सभी ",
    "902": " करोड़",
    "903": "ॉर्",
    "904": "मार्",
    "905": "ारे में ",
    "906": " सिंह ",
    "907": "बी ",
    "908": "कर्",
    "909": "ियों के ",
    "910": "बर ",
    "911": "ताल",
    "912": "ष ",
    "913": " सो",
    "914": "जै",
    "915": "तीन ",
    "916": "जीव",
    "917": "ा की ",
    "918": " रुप",
    "919": "क्ति",
    "920": "दोनों ",
    "921": "पो",
    "922": " कार",
    "923": "ाई",
    "924": "बात ",
    "925": "जरू",
    "926": "दर",
    "927": "प्रा",
    "928": "जे ",
    "929": "ा को",
    "930": "दौरान ",
    "931": "ा है ",
    "932": "चे ",
    "933": " पर",
    "934": "राष्ट्री",
    "935": "भारत ",
    "936": "विद्य",
    "937": "शास",
    "938": "दिया है",
    "939": "सरकार",
    "940": " कर सक",
    "941": "इसे ",
    "942": "अस",
    "943": " किया",
    "944": "गए",
    "945": "षण",
    "946": "ल के ",
    "947": "डी ",
    "948": "पत्",
    "949": "वान",
    "950": "लड़",
    "951": "जय",
    "952": "ते हुए ",
    "953": "शिक",
    "954": "साथ ",
    "955": "नव",
    "956": "ंस",
    "957": "समा",
    "958": "ये",
    "959": "अलग",
    "960": "एम ",
    "961": "मुख्यमंत्री ",
    "962": "धी",
    "963": "अला",
    "964": "भारतीय",
    "965": "पिछ",
    "966": " करी",
    "967": "व्यव",
    "968": "शिक्ष",
    "969": "ट में ",
    "970": "धी ",
    "971": "द्र",
    "972": "ने के ",
    "973": "गांव",
    "974": "वर ",
    "975": "जाने ",
    "976": "्षेत्र",
    "977": "भग",
    "978": "िले",
    "979": "गई है",
    "980": "आत",
    "981": " कै",
    "982": "अधिकार",
    "983": "अम",
    "984": "बर",
    "985": "अनुसार ",
    "986": " किया है",
    "987": "विधान",
    "988": " सरकार ",
    "989": "नेता ",
    "990": " किसी ",
    "991": "ऐसा ",
    "992": "प्त",
    "993": "अब",
    "994": "वाई",
    "995": " मै",
    "996": "दि ",
    "997": " ने ",
    "998": "उम्मी",
    "999": "टीम",
    "1000": "मुझे ",
    "1001": "ी में ",
    "1002": "मोदी ",
    "1003": "त्या",
    "1004": "इला",
    "1005": "याद",
    "1006": "ा और ",
    "1007": "जा रहा है",
    "1008": "बना",
    "1009": "क्रम",
    "1010": "पर क",
    "1011": " सब",
    "1012": "फिल्",
    "1013": "माण",
    "1014": "अभी ",
    "1015": "जाने",
    "1016": " प्रति",
    "1017": "व्या",
    "1018": "को",
    "1019": "विश्व",
    "1020": "िसी ",
    "1021": "सुर",
    "1022": " जो ",
    "1023": "गिर",
    "1024": " की",
    "1025": "दार",
    "1026": "शा ",
    "1027": " कुमार ",
    "1028": "ाप",
    "1029": "दर्ज",
    "1030": "राजनी",
    "1031": " के खिला",
    "1032": "इत",
    "1033": "ग्राम",
    "1034": "क में ",
    "1035": "बल्",
    "1036": " पुलि",
    "1037": "लगा",
    "1038": "इसी ",
    "1039": "सभा ",
    "1040": "ंदि",
    "1041": "मांग",
    "1042": "िका ",
    "1043": "टा ",
    "1044": "बेह",
    "1045": "प्रे",
    "1046": "िके",
    "1047": "अधिक ",
    "1048": "जाय",
    "1049": "्योंकि ",
    "1050": " पी",
    "1051": "घो",
    "1052": "श्य",
    "1053": "्ड",
    "1054": "चाल",
    "1055": "सामने ",
    "1056": "होगा",
    "1057": "ुक",
    "1058": "जाएगा",
    "1059": "इसमें ",
    "1060": "विभाग",
    "1061": "हार",
    "1062": "उस ",
    "1063": "समय",
    "1064": "मुताब",
    "1065": "ने पर ",
    "1066": "धार ",
    "1067": "मान ",
    "1068": "ने में ",
    "1069": "ट्रे",
    "1070": "राष्ट्र",
    "1071": "नई ",
    "1072": "अलावा ",
    "1073": "न्याय",
    "1074": "धानमंत्री ",
    "1075": "चुक",
    "1076": "ों के लिए ",
    "1077": "हालां",
    "1078": "विशे",
    "1079": "जल",
    "1080": "होता है",
    "1081": "ँ ",
    "1082": "उसकी ",
    "1083": "ियों ",
    "1084": "ध ",
    "1085": "अमे",
    "1086": "कर",
    "1087": "डाल",
    "1088": "जानकारी ",
    "1089": "मद",
    "1090": "वाय",
    "1091": "दिख",
    "1092": "विरो",
    "1093": "सिंह ",
    "1094": "आय",
    "1095": "ट्ट",
    "1096": "ी का ",
    "1097": "पक्ष",
    "1098": "भारतीय ",
    "1099": "दिल",
    "1100": "छात्र",
    "1101": " करने की ",
    "1102": "स्य",
    "1103": "लॉ",
    "1104": "लू",
    "1105": "दाय",
    "1106": "आपके ",
    "1107": "व्यवस्थ",
    "1108": "उनका ",
    "1109": "डा",
    "1110": "ीम",
    "1111": "गल",
    "1112": "लोगों को ",
    "1113": "रिपोर्",
    "1114": "तरी",
    "1115": "सफ",
    "1116": " के बारे में ",
    "1117": "फिल्म ",
    "1118": "खि",
    "1119": "ह से ",
    "1120": "श्री ",
    "1121": "गै",
    "1122": "अभ",
    "1123": "इसलिए ",
    "1124": "ंद्र",
    "1125": "ओं को ",
    "1126": " कंप",
    "1127": "शी ",
    "1128": "न को ",
    "1129": "शर्म",
    "1130": "न्यू",
    "1131": "पाद",
    "1132": "न स",
    "1133": "मीड",
    "1134": "स को ",
    "1135": "पाकिस्त",
    "1136": "सां",
    "1137": "ने वाली ",
    "1138": "तौ",
    "1139": "सूच",
    "1140": "दौरान",
    "1141": "ी है ",
    "1142": "श्री",
    "1143": " किए ",
    "1144": "रूप में ",
    "1145": "महिला",
    "1146": "उन्होंने कहा कि ",
    "1147": "े में ",
    "1148": "आहे",
    "1149": " बन",
    "1150": "ारण",
    "1151": "न का ",
    "1152": "धिक",
    "1153": " कांग्रे",
    "1154": "ं कि ",
    "1155": "इसका ",
    "1156": "मेरे ",
    "1157": "रत ",
    "1158": "गौ",
    "1159": " कम",
    "1160": "रवि",
    "1161": "विष",
    "1162": "ने लग",
    "1163": "रहे हैं ",
    "1164": "ंगल",
    "1165": "शान",
    "1166": " क्र",
    "1167": "नार",
    "1168": "ोज",
    "1169": " साम",
    "1170": "ी को ",
    "1171": "ियों की ",
    "1172": "हो सक",
    "1173": "यर",
    "1174": "रूप से ",
    "1175": "कृ",
    "1176": "युव",
    "1177": "वेश",
    "1178": "ाला ",
    "1179": "दूस",
    "1180": "ाली ",
    "1181": "तिक",
    "1182": "टीम ",
    "1183": "अमेरिक",
    "1184": "होती है",
    "1185": "बह",
    "1186": "दिए ",
    "1187": "वृ",
    "1188": " पहुंच",
    "1189": "दूसरे ",
    "1190": "यात्र",
    "1191": "दुन",
    "1192": "बच",
    "1193": "वास",
    "1194": " कोर्",
    "1195": "वेद",
    "1196": "बॉ",
    "1197": "चै",
    "1198": "जैसे ",
    "1199": "ट के ",
    "1200": "ानू",
    "1201": "आगे ",
    "1202": " पे",
    "1203": "था कि ",
    "1204": " पहले ",
    "1205": "संग",
    "1206": "रत",
    "1207": "स्त ",
    "1208": "मामले में ",
    "1209": "लिया",
    "1210": "जम",
    "1211": "साइ",
    "1212": "लाइ",
    "1213": " सू",
    "1214": "है और ",
    "1215": "मौजू",
    "1216": "ारण ",
    "1217": " सरकार",
    "1218": "नो",
    "1219": "क्स ",
    "1220": "गुरु",
    "1221": "आव",
    "1222": "ाने की ",
    "1223": "नाम ",
    "1224": "भाजपा ",
    "1225": "गं",
    "1226": "वाली ",
    "1227": "पं",
    "1228": "तिक ",
    "1229": " करने के लिए ",
    "1230": "न से ",
    "1231": " मंत्र",
    "1232": "फीस",
    "1233": "वीडिय",
    "1234": "रंग",
    "1235": "प्त ",
    "1236": "ायक ",
    "1237": "नजर ",
    "1238": "गत",
    "1239": "अन्य",
    "1240": "त्र में ",
    "1241": "िति ",
    "1242": " कुछ ",
    "1243": "हित",
    "1244": "हुआ",
    "1245": "बल",
    "1246": "सै",
    "1247": "इनक",
    "1248": "जांच",
    "1249": "मात",
    "1250": "ंड ",
    "1251": " स्व",
    "1252": "टा",
    "1253": "स्ते",
    "1254": "न्न",
    "1255": "पिछले ",
    "1256": "आतंक",
    "1257": "भु",
    "1258": "मू",
    "1259": "स्वी",
    "1260": "पूर्व",
    "1261": "एल",
    "1262": "देश में ",
    "1263": "भव",
    "1264": "मही",
    "1265": "ाने के लिए ",
    "1266": "तरह ",
    "1267": " होग",
    "1268": "बता ",
    "1269": " पर क",
    "1270": "राव",
    "1271": "संख",
    "1272": "पति ",
    "1273": "अभि",
    "1274": "अन्य ",
    "1275": "महा",
    "1276": "स्ट ",
    "1277": "खेल",
    "1278": "जहां ",
    "1279": "पार",
    "1280": "हार ",
    "1281": "ंक ",
    "1282": " प्रा",
    "1283": "हों",
    "1284": "रिय",
    "1285": "हालांकि ",
    "1286": "अधिकारी ",
    "1287": "सर ",
    "1288": "घर ",
    "1289": "ने कहा कि",
    "1290": "लाख ",
    "1291": "खरी",
    "1292": "विश्",
    "1293": " का",
    "1294": "बड़",
    "1295": "चल ",
    "1296": "भाष",
    "1297": "यान",
    "1298": "न ने ",
    "1299": " स्क",
    "1300": "शामिल",
    "1301": "पुलिस ",
    "1302": "बाल",
    "1303": "मेंट",
    "1304": "त की ",
    "1305": "नरे",
    "1306": " के बीच",
    "1307": "गत ",
    "1308": "द्र ",
    "1309": "लाल",
    "1310": "पक",
    "1311": "आदि",
    "1312": "ंद ",
    "1313": " हि",
    "1314": "ों और ",
    "1315": "ना क",
    "1316": "उम्मीद",
    "1317": " करने का ",
    "1318": "नगर ",
    "1319": " मिल",
    "1320": "इस्ते",
    "1321": "घटना",
    "1322": "बना ",
    "1323": "स्ता",
    "1324": "आरोप ",
    "1325": "हित ",
    "1326": "एफ",
    "1327": "शिव",
    "1328": "ओर ",
    "1329": "रव",
    "1330": " समा",
    "1331": "फैस",
    "1332": "लिये ",
    "1333": "मुताबिक ",
    "1334": "चा ",
    "1335": "ीय ",
    "1336": "क्टर ",
    "1337": "जाते ",
    "1338": "लाख",
    "1339": "यर ",
    "1340": "इंट",
    "1341": "घा",
    "1342": "भाग ",
    "1343": "रीक्ष",
    "1344": "सिल",
    "1345": "छोट",
    "1346": " कॉ",
    "1347": "वल ",
    "1348": "साथ ही ",
    "1349": "रै",
    "1350": "वहां ",
    "1351": " सिंह",
    "1352": "दर्शन",
    "1353": " करते हुए ",
    "1354": "संबंध",
    "1355": " पार्ट",
    "1356": "ा ने ",
    "1357": " जिस",
    "1358": " करें ",
    "1359": "मंड",
    "1360": "उपल",
    "1361": "ियों ने ",
    "1362": "महिला ",
    "1363": "मध्य",
    "1364": "उसने ",
    "1365": "मीडिया ",
    "1366": "उत्तर ",
    "1367": "श्मी",
    "1368": "विक",
    "1369": "भर",
    "1370": "ल की ",
    "1371": " काम",
    "1372": "बाइ",
    "1373": "ूब",
    "1374": "लगा ",
    "1375": "नहीं क",
    "1376": "टू",
    "1377": "हिस्",
    "1378": "जर",
    "1379": "गढ़",
    "1380": "निक ",
    "1381": "जवा",
    "1382": "राहु",
    "1383": "न और ",
    "1384": "श्च",
    "1385": "वर",
    "1386": "पढ़",
    "1387": " सभी ",
    "1388": "गण",
    "1389": "स्वा",
    "1390": "हिंद",
    "1391": "मं",
    "1392": "पूरी ",
    "1393": "लक्ष",
    "1394": " पि",
    "1395": "हमारे ",
    "1396": " बा",
    "1397": "टै",
    "1398": "बीजे",
    "1399": "शामिल ",
    "1400": "ात्म",
    "1401": "मुंब",
    "1402": "व्यक्ति",
    "1403": "उपलब्",
    "1404": "बड़ी ",
    "1405": "चुके ",
    "1406": "एस ",
    "1407": " बै",
    "1408": "मुद्",
    "1409": "न्न ",
    "1410": "ाया",
    "1411": "शुरु",
    "1412": "गिरफ्",
    "1413": "ट पर ",
    "1414": "ोड़",
    "1415": "ी और ",
    "1416": "पर्",
    "1417": "इसकी ",
    "1418": "स्थित ",
    "1419": "अंद",
    "1420": "जिला ",
    "1421": "शल ",
    "1422": "काल",
    "1423": " करें",
    "1424": "त के ",
    "1425": "लाभ",
    "1426": "रन ",
    "1427": "पद",
    "1428": "द्योग",
    "1429": " कई ",
    "1430": "त्म",
    "1431": "लगात",
    "1432": "आरोप",
    "1433": "गया था",
    "1434": "शाद",
    "1435": " समझ",
    "1436": " जा",
    "1437": "सर्",
    "1438": "पता ",
    "1439": "अस्प",
    "1440": "क्ति ",
    "1441": "तहत ",
    "1442": "ऐसी ",
    "1443": "तैयार",
    "1444": " की है",
    "1445": "लिए",
    "1446": "तौर पर ",
    "1447": " करके ",
    "1448": "देव",
    "1449": " समय",
    "1450": "जा रही है",
    "1451": "मैं",
    "1452": "वित्",
    "1453": "फाइ",
    "1454": "फ्र",
    "1455": "ाई ",
    "1456": "ी कर ",
    "1457": "करण",
    "1458": "चो",
    "1459": "ान के ",
    "1460": "राम ",
    "1461": "बू",
    "1462": "वजह से ",
    "1463": "पास",
    "1464": "बताया ",
    "1465": "समय ",
    "1466": "उसका ",
    "1467": " के बीच ",
    "1468": "शिश",
    "1469": "समझ",
    "1470": "ड्र",
    "1471": "आस",
    "1472": "वाप",
    "1473": "सवाल",
    "1474": "मदद",
    "1475": "परे",
    "1476": " पद",
    "1477": "हाथ",
    "1478": "दिव",
    "1479": "भो",
    "1480": "शिकाय",
    "1481": "वाह",
    "1482": "शह",
    "1483": "रात ",
    "1484": "ख्",
    "1485": "निर्माण",
    "1486": "ियाण",
    "1487": "कर क",
    "1488": "मौके ",
    "1489": "यदि ",
    "1490": "इस्तेमाल",
    "1491": "पट",
    "1492": "रेल",
    "1493": "खुद",
    "1494": "जाना ",
    "1495": "दूसरी ",
    "1496": "ार्थ",
    "1497": "नाग",
    "1498": "ालय ",
    "1499": "न पर ",
    "1500": "बन ",
    "1501": "बां",
    "1502": "लेख",
    "1503": "अफ",
    "1504": "गठ",
    "1505": "भूम",
    "1506": "ता के ",
    "1507": "धु",
    "1508": "ाता ",
    "1509": "विरोध",
    "1510": "स्टे",
    "1511": "पड़",
    "1512": "जबकि ",
    "1513": "मर",
    "1514": "दी है",
    "1515": "जल्",
    "1516": "णी ",
    "1517": "वो",
    "1518": "राष्ट्रीय",
    "1519": "घु",
    "1520": "फाय",
    "1521": "ख़",
    "1522": " जी",
    "1523": "गू",
    "1524": "हुई",
    "1525": "ामी ",
    "1526": "ने के बाद ",
    "1527": "फोट",
    "1528": "पहली ",
    "1529": " पै",
    "1530": "शां",
    "1531": "भारी ",
    "1532": "धर्म",
    "1533": "विशेष",
    "1534": "ती है ",
    "1535": " का प्र",
    "1536": "ांच ",
    "1537": "जिल",
    "1538": "जाती है",
    "1539": "देश के ",
    "1540": "आए ",
    "1541": "मैच",
    "1542": " करा",
    "1543": "जबू",
    "1544": "जन ",
    "1545": "पुलिस ने ",
    "1546": " को स",
    "1547": " करोड़ रुप",
    "1548": "दर्श",
    "1549": "ान में ",
    "1550": " मह",
    "1551": "वन",
    "1552": "तब ",
    "1553": "आम ",
    "1554": "ठी",
    "1555": "जिसमें ",
    "1556": "ड़ ",
    "1557": "मंदि",
    "1558": "दिल्ली",
    "1559": "ीय",
    "1560": "क के ",
    "1561": "राह",
    "1562": "पत्र",
    "1563": "र्फ ",
    "1564": "िया के ",
    "1565": " कर दिया ",
    "1566": "नेता",
    "1567": "गेंद",
    "1568": "ची ",
    "1569": "त हो ",
    "1570": "उपयोग",
    "1571": " का आ",
    "1572": "शुक्र",
    "1573": "वर्त",
    "1574": " कहा ",
    "1575": "योजना",
    "1576": "ल्प",
    "1577": "लोगों की ",
    "1578": "चुनाव ",
    "1579": "न्द्र ",
    "1580": "घंट",
    "1581": "बता दे",
    "1582": "ने बताया कि ",
    "1583": "मेरी ",
    "1584": "चान",
    "1585": "सुन",
    "1586": "विभि",
    "1587": "्षेत्र में ",
    "1588": "चर्च",
    "1589": "ण्या",
    "1590": "लैंड",
    "1591": "नग",
    "1592": "ेगा",
    "1593": "शनि",
    "1594": "िश",
    "1595": "ज में ",
    "1596": "तिहा",
    "1597": " की आ",
    "1598": "होगी",
    "1599": "ठी ",
    "1600": "लाई",
    "1601": " कुछ",
    "1602": "फीसदी ",
    "1603": "चू",
    "1604": "मक",
    "1605": "ओं के ",
    "1606": "शरी",
    "1607": "बाहर ",
    "1608": "खंड",
    "1609": "दल",
    "1610": "खो",
    "1611": "आए",
    "1612": "विदेश",
    "1613": "अभिय",
    "1614": " करता है",
    "1615": "ंबर ",
    "1616": "ना है",
    "1617": "नोट",
    "1618": "ियों में ",
    "1619": "शत ",
    "1620": "दाल",
    "1621": "पार्टी ",
    "1622": "रुपये ",
    "1623": "अति",
    "1624": "लंब",
    "1625": "छोड़",
    "1626": "म्मे",
    "1627": "समर्थ",
    "1628": "मजबू",
    "1629": "बढ़",
    "1630": "चिक",
    "1631": "प्रधानमंत्री ",
    "1632": "वासी ",
    "1633": "लगातार ",
    "1634": "जीत",
    "1635": "पंच",
    "1636": "एच",
    "1637": "सम्",
    "1638": "न्द",
    "1639": "अध्यक्ष ",
    "1640": "र का ",
    "1641": "र्य",
    "1642": "टक",
    "1643": "पूछ",
    "1644": "ंस ",
    "1645": "नाथ",
    "1646": "चाहिए ",
    "1647": "डर ",
    "1648": "सौ",
    "1649": "मौके पर ",
    "1650": "तरफ",
    "1651": "बिज",
    "1652": "भारत में ",
    "1653": "गांधी ",
    "1654": "अर्",
    "1655": "टे ",
    "1656": "राहुल ",
    "1657": "धन",
    "1658": "म से ",
    "1659": "काश",
    "1660": " जब",
    "1661": " क्या ",
    "1662": "ारा",
    "1663": "र्ष",
    "1664": "ंत",
    "1665": "तृ",
    "1666": "टो",
    "1667": " सुर",
    "1668": "लु",
    "1669": "ते हुए",
    "1670": "ज के ",
    "1671": "राब",
    "1672": "मूल",
    "1673": "उत्पाद",
    "1674": "ी कि ",
    "1675": " करीब ",
    "1676": "हमें ",
    "1677": "हैं और ",
    "1678": "एं",
    "1679": "ऐस",
    "1680": "होगा ",
    "1681": "यही ",
    "1682": "चलते ",
    "1683": "जा सकता है",
    "1684": "ूल ",
    "1685": "डे ",
    "1686": "शिक्षा ",
    "1687": " बि",
    "1688": "ता की ",
    "1689": "वान ",
    "1690": "गर्",
    "1691": "मैंने ",
    "1692": " मि",
    "1693": "पीछ",
    "1694": " क्",
    "1695": " क्य",
    "1696": "दीप",
    "1697": "गिरफ्तार",
    "1698": "तरह से ",
    "1699": "मे ",
    "1700": "इस बात",
    "1701": "खान",
    "1702": "ने के लिए",
    "1703": "ने को ",
    "1704": "ोई ",
    "1705": "इस्",
    "1706": "योजना ",
    "1707": "घोषण",
    "1708": "म में ",
    "1709": "वु",
    "1710": "पूर्ण",
    "1711": "दूर ",
    "1712": "ओर से ",
    "1713": " बे",
    "1714": "निग",
    "1715": "वरि",
    "1716": "हना है कि ",
    "1717": "टिक",
    "1718": "विद्यालय",
    "1719": "आवश्य",
    "1720": "मामला ",
    "1721": "तर्",
    "1722": "जिसके ",
    "1723": "विके",
    "1724": "ग्रामी",
    "1725": "ाने में ",
    "1726": "क्ष ",
    "1727": "धन ",
    "1728": "भ्र",
    "1729": "सिंह",
    "1730": "इसके अलावा ",
    "1731": "ज्ञान",
    "1732": "आद",
    "1733": "पानी ",
    "1734": "राष्ट्रीय ",
    "1735": "नरेंद्र ",
    "1736": "एक बार ",
    "1737": "नहीं हो",
    "1738": "ओं की ",
    "1739": "संख्या ",
    "1740": "दक्ष",
    "1741": " किया गया है",
    "1742": "मृ",
    "1743": "धो",
    "1744": "हरियाण",
    "1745": "लिय",
    "1746": "हरा",
    "1747": "दिखा",
    "1748": "जन्",
    "1749": "विचार",
    "1750": "ा को ",
    "1751": "ी कि",
    "1752": "मंगल",
    "1753": "सार",
    "1754": "स्तु",
    "1755": "इंटर",
    "1756": "तिय",
    "1757": "लेकिन",
    "1758": "उन ",
    "1759": " कर्म",
    "1760": "मुका",
    "1761": "नियम",
    "1762": "शहर",
    "1763": "ायल",
    "1764": "प्रो",
    "1765": " सह",
    "1766": "ंत ",
    "1767": "पति",
    "1768": "विकास ",
    "1769": " काफी ",
    "1770": " मंत्री ",
    "1771": " करते हैं",
    "1772": "जाएगी",
    "1773": "है कि",
    "1774": "अस्पताल",
    "1775": "योजन",
    "1776": "ट से ",
    "1777": "बड़ा ",
    "1778": "ं और ",
    "1779": "संघ",
    "1780": "नै",
    "1781": " कोई",
    "1782": "वीडियो ",
    "1783": "पूर्व ",
    "1784": "विधानसभा ",
    "1785": "ड़क",
    "1786": " के दौरान ",
    "1787": "लड़",
    "1788": "ारो",
    "1789": "पूर्ण ",
    "1790": "भाजपा",
    "1791": "जय ",
    "1792": "ांग",
    "1793": "ऐसे में ",
    "1794": "बा ",
    "1795": " के खिलाफ ",
    "1796": "टाइ",
    "1797": "ड्",
    "1798": "माध्य",
    "1799": " जो",
    "1800": "िंग",
    "1801": "ायक",
    "1802": " संग",
    "1803": "जगह ",
    "1804": "मोदी",
    "1805": "वरिष्ठ",
    "1806": "ेंद्र ",
    "1807": "्रीय",
    "1808": "वाई ",
    "1809": "धि",
    "1810": "अर्थ",
    "1811": "ाह",
    "1812": "लौ",
    "1813": "शब्",
    "1814": "निर्ण",
    "1815": "तस्वी",
    "1816": "ठा",
    "1817": "गुज",
    "1818": "विकास",
    "1819": "ल ने ",
    "1820": "ष्ण",
    "1821": "एक्",
    "1822": "ट की ",
    "1823": "र्फ",
    "1824": "म्प",
    "1825": "च्या ",
    "1826": "ी कोशिश",
    "1827": "दूर",
    "1828": "हा कि ",
    "1829": "जानकार",
    "1830": "द्ध ",
    "1831": "गंभी",
    "1832": "दम ",
    "1833": "रिकॉर्",
    "1834": " संबंध",
    "1835": "ाने का ",
    "1836": "ले की ",
    "1837": "तं",
    "1838": "ट ने ",
    "1839": " क्योंकि ",
    "1840": "श्रे",
    "1841": " हा",
    "1842": "ाओं ",
    "1843": " प्",
    "1844": "स्कृ",
    "1845": "ना चाह",
    "1846": "बड़े ",
    "1847": "जमी",
    "1848": "ून ",
    "1849": "स्ट्रे",
    "1850": "शर्मा ",
    "1851": "दक्षि",
    "1852": "राय",
    "1853": "निवेश",
    "1854": "रही",
    "1855": "ा किया ",
    "1856": "फु",
    "1857": "भावि",
    "1858": " पो",
    "1859": "लोगों ने ",
    "1860": "र ने ",
    "1861": "दिनों ",
    "1862": "ी हैं",
    "1863": "वादी ",
    "1864": "फल",
    "1865": "अख",
    "1866": "त्ता ",
    "1867": "िति",
    "1868": " समय ",
    "1869": "बह ",
    "1870": "एक्स",
    "1871": "दृ",
    "1872": " क्षेत्र",
    "1873": "पेश",
    "1874": "्रवाई",
    "1875": " करते हैं ",
    "1876": "लब ",
    "1877": "खन",
    "1878": "जीत ",
    "1879": "रक्ष",
    "1880": " जात",
    "1881": "आपकी ",
    "1882": "गए हैं",
    "1883": "बुध",
    "1884": "आयोग",
    "1885": "नए ",
    "1886": "माना ",
    "1887": "र्त",
    "1888": "वर्ग",
    "1889": "प्रीम",
    "1890": "स्थाप",
    "1891": "अच्छा ",
    "1892": "रिल",
    "1893": " सकता है",
    "1894": "सचि",
    "1895": "खा ",
    "1896": "ग्रह",
    "1897": "निश्च",
    "1898": "तीन",
    "1899": "बल ",
    "1900": "वाला ",
    "1901": "इंडिया ",
    "1902": "उत",
    "1903": "ता हू",
    "1904": "समस",
    "1905": "बाद में ",
    "1906": "मुख्य ",
    "1907": "राध",
    "1908": "ी के क",
    "1909": "एजे",
    "1910": "बस",
    "1911": "तला",
    "1912": "वें ",
    "1913": "विधायक ",
    "1914": " करने वाले ",
    "1915": "ता को ",
    "1916": "हुआ है",
    "1917": "ती हैं",
    "1918": " किया गया",
    "1919": "वल",
    "1920": "संद",
    "1921": "रात",
    "1922": "मुकाब",
    "1923": "ना चाहिए",
    "1924": "दुर्",
    "1925": "्मान",
    "1926": "त्त",
    "1927": "हाँ",
    "1928": "था और ",
    "1929": "हजार ",
    "1930": " मो",
    "1931": "पाल ",
    "1932": "इसके बाद ",
    "1933": "ी से ",
    "1934": "जिससे ",
    "1935": "तुल",
    "1936": "महत्व",
    "1937": " करते हुए",
    "1938": "आखि",
    "1939": "नहीं मिल",
    "1940": "उद्",
    "1941": "लर ",
    "1942": "आवेद",
    "1943": " बी",
    "1944": "प्रै",
    "1945": " स्थान",
    "1946": "जिसक",
    "1947": "ियों का ",
    "1948": "तैयार ",
    "1949": "अच्छी ",
    "1950": "लेबा",
    "1951": "पूर",
    "1952": "ये क",
    "1953": "शाय",
    "1954": " कहा कि ",
    "1955": "दारी ",
    "1956": "साय",
    "1957": "ता है कि ",
    "1958": "अंग",
    "1959": "उपलब्ध",
    "1960": "निकाल",
    "1961": "पांच",
    "1962": " सबसे ",
    "1963": "बहुत",
    "1964": "लाम",
    "1965": "फ्ट",
    "1966": "कां",
    "1967": "कान",
    "1968": "अंतर",
    "1969": "निर्म",
    "1970": " हुई ",
    "1971": "क की ",
    "1972": "इस स",
    "1973": " कर रही है",
    "1974": "बैंक",
    "1975": " के खिलाफ",
    "1976": "आवा",
    "1977": "घर",
    "1978": "ंपनी ",
    "1979": "ाने के ",
    "1980": "े और ",
    "1981": "ार्ड",
    "1982": "लिया है",
    "1983": "आर्थ",
    "1984": "वॉ",
    "1985": "ध्यान ",
    "1986": "स का ",
    "1987": "बाजार ",
    "1988": "लोगों के ",
    "1989": "अधि",
    "1990": "ंग्",
    "1991": "डा ",
    "1992": " पुर",
    "1993": "देश की ",
    "1994": "ओं का ",
    "1995": " के रूप में ",
    "1996": "जारी ",
    "1997": "आं",
    "1998": "ने के बाद",
    "1999": "म्म",
    "2000": "ियों से ",
    "2001": "ित्",
    "2002": "गति",
    "2003": "लीवु",
    "2004": "ेश",
    "2005": "स और ",
    "2006": "ता क",
    "2007": "रें ",
    "2008": " सै",
    "2009": "स्थिति ",
    "2010": "इन्",
    "2011": "क्क",
    "2012": "इतना ",
    "2013": " को भी ",
    "2014": "जित",
    "2015": "दुनिया ",
    "2016": "स्कूल",
    "2017": "यास",
    "2018": "भर ",
    "2019": "मुंबई",
    "2020": "घटना ",
    "2021": "छु",
    "2022": "उत्तर प्रदेश",
    "2023": "ात्",
    "2024": "उल्",
    "2025": "हिन्",
    "2026": "जिस ",
    "2027": "ाया है",
    "2028": "जाए ",
    "2029": "खरीद",
    "2030": "रहा",
    "2031": "श्क",
    "2032": "ल और ",
    "2033": "ु ",
    "2034": "शै",
    "2035": " संघ",
    "2036": "नुक",
    "2037": "देखा ",
    "2038": " कर रहे हैं",
    "2039": "सित",
    "2040": "व्",
    "2041": " करने के ",
    "2042": "सोम",
    "2043": "महारा",
    "2044": "नी क",
    "2045": "युक्त ",
    "2046": "स्ट्र",
    "2047": "पाकिस्तान",
    "2048": "शाह",
    "2049": "पान",
    "2050": "यादव ",
    "2051": "उद्योग",
    "2052": "ने अपने ",
    "2053": "िस ",
    "2054": "खबर ",
    "2055": "ते है",
    "2056": " सद",
    "2057": "माह",
    "2058": "न्हें ",
    "2059": "लाल ",
    "2060": "तय",
    "2061": "विपक्ष",
    "2062": "यह भी ",
    "2063": "े कि ",
    "2064": "राश",
    "2065": "वन ",
    "2066": "लान",
    "2067": "फर्",
    "2068": "ना कर",
    "2069": "तब",
    "2070": "ता से ",
    "2071": "श्चि",
    "2072": " प्रो",
    "2073": "ाले",
    "2074": "म्ब",
    "2075": "डो",
    "2076": "े से ",
    "2077": "सी के ",
    "2078": "प्रमुख",
    "2079": "परिवार",
    "2080": "विवाद",
    "2081": "त्री ",
    "2082": " पिछ",
    "2083": " जन",
    "2084": "स्थ्य",
    "2085": "पंजा",
    "2086": " करेंगे",
    "2087": "मेरा ",
    "2088": " कार्यक्रम",
    "2089": "लक",
    "2090": " की स",
    "2091": "ंभ",
    "2092": "लग ",
    "2093": "बल्कि ",
    "2094": "अगले ",
    "2095": "धान ",
    "2096": " को क",
    "2097": "तु ",
    "2098": "अदाल",
    "2099": "धार पर ",
    "2100": "साल ",
    "2101": "तम ",
    "2102": "थम",
    "2103": " के दौरान",
    "2104": "रह ",
    "2105": "अर",
    "2106": "मौजूद ",
    "2107": "आयोज",
    "2108": "वास्त",
    "2109": "व्याप",
    "2110": "म्ह",
    "2111": "मेशा ",
    "2112": " होता है",
    "2113": "जरूरत ",
    "2114": " हुआ ",
    "2115": "ताकि ",
    "2116": "भारत के ",
    "2117": "टिंग",
    "2118": "तीस",
    "2119": "बोर्",
    "2120": "क और ",
    "2121": "आर ",
    "2122": "हान",
    "2123": "रहा है ",
    "2124": "तत्",
    "2125": "धा ",
    "2126": "गृ",
    "2127": "ात्र ",
    "2128": "घे",
    "2129": "मॉ",
    "2130": "पूरा ",
    "2131": " सौ",
    "2132": "सुरक्ष",
    "2133": "आरोप लग",
    "2134": "ल को ",
    "2135": "प्ट",
    "2136": "वापस ",
    "2137": "ियन ",
    "2138": "रखा ",
    "2139": "ात ",
    "2140": " सचि",
    "2141": "जगह",
    "2142": " करीब",
    "2143": "टेस्ट",
    "2144": "हाँ ",
    "2145": "ों में क",
    "2146": "टल ",
    "2147": "ल पर ",
    "2148": "मन ",
    "2149": "राष्ट्रपति ",
    "2150": "विभाग ",
    "2151": "ते हैं कि ",
    "2152": "ाये ",
    "2153": "रच",
    "2154": "गई थी",
    "2155": "मुश्क",
    "2156": "ल से ",
    "2157": "बोध",
    "2158": "बीजेपी ",
    "2159": "हुई है",
    "2160": "प्रिय",
    "2161": "मिले",
    "2162": "जूद ",
    "2163": "मनो",
    "2164": "ुष",
    "2165": "ाज",
    "2166": "चुनाव में ",
    "2167": "ते ही ",
    "2168": " सर्",
    "2169": "अंति",
    "2170": "दाव",
    "2171": "ना के ",
    "2172": "रोक",
    "2173": "वार्",
    "2174": " करने में ",
    "2175": "सान ",
    "2176": "पूरे ",
    "2177": "न हो",
    "2178": "भी नहीं ",
    "2179": " कर रहे ",
    "2180": "ऊपर ",
    "2181": "इससे पहले ",
    "2182": "सरकार ने ",
    "2183": "ब्रि",
    "2184": " करने के लिए",
    "2185": " कृ",
    "2186": "पण",
    "2187": " क्रिके",
    "2188": "वर्ष ",
    "2189": "जरि",
    "2190": " पाकिस्त",
    "2191": "नीचे ",
    "2192": "जोड़",
    "2193": "सूचना ",
    "2194": "हाई",
    "2195": "फा ",
    "2196": "सरकारी ",
    "2197": "नेट",
    "2198": "प्रीम कोर्",
    "2199": "धर",
    "2200": "जिम्मे",
    "2201": "िए ",
    "2202": "फॉ",
    "2203": " स्टे",
    "2204": "कर्ता",
    "2205": "लाइन ",
    "2206": "र और ",
    "2207": " प्रे",
    "2208": "बताया कि",
    "2209": "उससे ",
    "2210": "खास ",
    "2211": "यादव",
    "2212": "देर ",
    "2213": "हासिल",
    "2214": "बज",
    "2215": "गाय",
    "2216": "ल्ड",
    "2217": "शं",
    "2218": "आदि ",
    "2219": "न प",
    "2220": "वक्",
    "2221": "नय",
    "2222": "चिकित्",
    "2223": "दम",
    "2224": "बता दें कि ",
    "2225": "मोबाइ",
    "2226": "सद ",
    "2227": "ल्या",
    "2228": "खत्म",
    "2229": "घर में ",
    "2230": "लोकसभा ",
    "2231": "रक",
    "2232": "ना पड़",
    "2233": "साब",
    "2234": "ने के क",
    "2235": "नौक",
    "2236": "बोल",
    "2237": "नया ",
    "2238": "वित्त ",
    "2239": "ज की ",
    "2240": "निवासी ",
    "2241": "ंदोल",
    "2242": "कों को ",
    "2243": "गये ",
    "2244": "खर्च",
    "2245": "बंग",
    "2246": "फा",
    "2247": "ंगी",
    "2248": "त हो",
    "2249": "धिकार",
    "2250": "ियों",
    "2251": "सदस्य",
    "2252": "बेहतर ",
    "2253": "ांग्रेस ",
    "2254": " पुलिस ",
    "2255": "अपने क",
    "2256": "इस बार ",
    "2257": "लं",
    "2258": "राजनीतिक ",
    "2259": "र्स ",
    "2260": "प्रति ",
    "2261": " हुआ",
    "2262": "वोट",
    "2263": "म के ",
    "2264": "ल्ट",
    "2265": "ाते हैं",
    "2266": "आया ",
    "2267": "निश",
    "2268": "शुरुआ",
    "2269": "रास्",
    "2270": "वक्त ",
    "2271": "दोस्त",
    "2272": "मिल ",
    "2273": "स से ",
    "2274": "निर्देश",
    "2275": "गरी",
    "2276": "रान",
    "2277": "डाय",
    "2278": "इस प्र",
    "2279": "घायल",
    "2280": "ूम",
    "2281": "रार ",
    "2282": "हरा ",
    "2283": "ांनी ",
    "2284": "रं",
    "2285": "त्रि",
    "2286": "इसके लिए ",
    "2287": "बदला",
    "2288": "िया कि ",
    "2289": "तेज",
    "2290": "है तो ",
    "2291": "लब",
    "2292": "दिसं",
    "2293": "वार को",
    "2294": "तीसर",
    "2295": "भ्रष्ट",
    "2296": "उसी ",
    "2297": " के बा",
    "2298": "हमारी ",
    "2299": "चुके हैं",
    "2300": "लिक",
    "2301": "रिया ",
    "2302": "ता और ",
    "2303": "टॉ",
    "2304": "स पर ",
    "2305": "सर्व",
    "2306": "च्च ",
    "2307": "ने भी ",
    "2308": "बने ",
    "2309": "शब्द",
    "2310": "वृद्ध",
    "2311": "ो में ",
    "2312": "स्लि",
    "2313": "ने वाला ",
    "2314": "ाने क",
    "2315": "हिस्सा ",
    "2316": "खेल ",
    "2317": "शू",
    "2318": "रहा था",
    "2319": "ण्ड",
    "2320": " कर दिया",
    "2321": "नई दिल्ली ",
    "2322": "यानी ",
    "2323": "्रा",
    "2324": "नेशन",
    "2325": "अतिरि",
    "2326": "    ",
    "2327": "ड्ड",
    "2328": "विषय",
    "2329": "तार ",
    "2330": " किया था",
    "2331": "मिली ",
    "2332": "किंग",
    "2333": "नर ",
    "2334": "आइ",
    "2335": "फैसला ",
    "2336": " है",
    "2337": "नल ",
    "2338": " पत्र",
    "2339": "अप्रै",
    "2340": "प्रशास",
    "2341": "पीछे ",
    "2342": "चय",
    "2343": "लागू",
    "2344": "आन",
    "2345": " को देख",
    "2346": " स्वा",
    "2347": "गंभीर ",
    "2348": "विभिन्न ",
    "2349": "शल मीडिया ",
    "2350": "लेक्",
    "2351": "यूनि",
    "2352": "ाकर ",
    "2353": "सेना ",
    "2354": "चुकी है",
    "2355": "ाने के लिए",
    "2356": "इतिहा",
    "2357": "ट्वी",
    "2358": "ता में ",
    "2359": "ुल",
    "2360": "े की ",
    "2361": " जै",
    "2362": "ीज",
    "2363": "ंगा ",
    "2364": "ही नहीं ",
    "2365": "सिक ",
    "2366": "रल",
    "2367": "आरोपी ",
    "2368": "शिय",
    "2369": "मारे ",
    "2370": "ग्रामीण",
    "2371": "त से ",
    "2372": "एड",
    "2373": "चारी ",
    "2374": "दात",
    "2375": "व्यवस्था ",
    "2376": "इस तरह",
    "2377": "जिंद",
    "2378": "मुस्लि",
    "2379": "उन्",
    "2380": "धे ",
    "2381": "व्यक्ति ",
    "2382": "ा है कि",
    "2383": "चला ",
    "2384": "रिश्",
    "2385": "उपाय",
    "2386": "लाई ",
    "2387": "ा कोई ",
    "2388": "आधार",
    "2389": "राशि",
    "2390": "ड़े ",
    "2391": "सहयोग",
    "2392": "में से ",
    "2393": "रूप ",
    "2394": "उनसे ",
    "2395": "दान ",
    "2396": "विरा",
    "2397": "मिन",
    "2398": "गे ",
    "2399": "निकल",
    "2400": "बनाया ",
    "2401": " करव",
    "2402": "बिना ",
    "2403": "वास ",
    "2404": " हुए ",
    "2405": "मौत हो ",
    "2406": "ऑन",
    "2407": "उत्त",
    "2408": "उन्होंने कहा ",
    "2409": "जाम",
    "2410": "री को ",
    "2411": "थीं",
    "2412": "खिलाफ",
    "2413": "बल्लेबा",
    "2414": "विजय",
    "2415": "रण ",
    "2416": "्षेत्र ",
    "2417": "आंदोल",
    "2418": "लखन",
    "2419": "वेब",
    "2420": "फिर से ",
    "2421": " पूरी ",
    "2422": "टर",
    "2423": "मार्ग",
    "2424": "छू",
    "2425": "ंका ",
    "2426": "रुपए ",
    "2427": "िया की ",
    "2428": "जनव",
    "2429": "जवाब ",
    "2430": "ठ ",
    "2431": "लड़क",
    "2432": "लें",
    "2433": " मौ",
    "2434": "बाव",
    "2435": "जल्द",
    "2436": "नही ",
    "2437": "रोजग",
    "2438": "बनाए ",
    "2439": "क को ",
    "2440": "और",
    "2441": "जाता है ",
    "2442": "खू",
    "2443": "ल का ",
    "2444": "धर ",
    "2445": "माध्यम से ",
    "2446": "इसके बाद",
    "2447": " प्रदेश",
    "2448": "ा के क",
    "2449": "लगे ",
    "2450": " करने से ",
    "2451": "जिनक",
    "2452": "तंत्र",
    "2453": "पिता ",
    "2454": "भर्",
    "2455": "भविष",
    "2456": "स्थित",
    "2457": "नी के ",
    "2458": " कानू",
    "2459": "अंदर ",
    "2460": "ौर ",
    "2461": "प्ता",
    "2462": "भाई",
    "2463": "ड़ी ",
    "2464": "ीन ",
    "2465": "हल",
    "2466": "मामले ",
    "2467": "वीं ",
    "2468": "रिक ",
    "2469": "मर्",
    "2470": "फरव",
    "2471": "िसान",
    "2472": "ह में ",
    "2473": " सां",
    "2474": "देकर ",
    "2475": "तोड़",
    "2476": " स्कूल",
    "2477": "इस पर ",
    "2478": "विस्त",
    "2479": " कर सकते हैं",
    "2480": "नागरिक",
    "2481": "ताप",
    "2482": "नात",
    "2483": "नेतृ",
    "2484": "कॉ",
    "2485": " प्रतिशत ",
    "2486": "शर्",
    "2487": "तरीके ",
    "2488": "अवस",
    "2489": "गांव ",
    "2490": "नाल",
    "2491": " पूर्",
    "2492": " जाए",
    "2493": "बस ",
    "2494": "घोष",
    "2495": "बिल",
    "2496": "निदेश",
    "2497": "पहला ",
    "2498": "आपका ",
    "2499": "प्य",
    "2500": "ठीक ",
    "2501": "चिं",
    "2502": "सीट",
    "2503": "प्रदर्शन",
    "2504": "माय",
    "2505": "भुगत",
    "2506": " जब ",
    "2507": "बदल",
    "2508": "युवा ",
    "2509": "पोस्ट",
    "2510": "्याद",
    "2511": "रुपए",
    "2512": "चुनौ",
    "2513": "संगठ",
    "2514": "हाद",
    "2515": "दय",
    "2516": "ति के ",
    "2517": "बॉलीवु",
    "2518": "स क",
    "2519": "तू",
    "2520": "तेजी ",
    "2521": "बातची",
    "2522": "हमने ",
    "2523": "शाल",
    "2524": "क़",
    "2525": "हल्",
    "2526": "जम्म",
    "2527": "खान ",
    "2528": "इंग्",
    "2529": "फार",
    "2530": "राशि ",
    "2531": " किसान",
    "2532": "सफल",
    "2533": " जिसक",
    "2534": "तकनी",
    "2535": "यान ",
    "2536": "में कहा ",
    "2537": "शुभ",
    "2538": "अहम",
    "2539": "भाई ",
    "2540": "दोष",
    "2541": "रेलवे ",
    "2542": "वैसे ",
    "2543": " हम ",
    "2544": "भग ",
    "2545": " पं",
    "2546": "स्पे",
    "2547": "हॉ",
    "2548": " कंपनी ",
    "2549": "खुश",
    "2550": "तारी",
    "2551": "संभाव",
    "2552": "हमेशा ",
    "2553": "जोर ",
    "2554": "वाल ",
    "2555": "ंद्रीय",
    "2556": " कर दे",
    "2557": "फोन ",
    "2558": "त्व ",
    "2559": " कर दिया है",
    "2560": "हाल ही ",
    "2561": "त आ",
    "2562": "गुण",
    "2563": " मा",
    "2564": "त ने ",
    "2565": "कर्म",
    "2566": "ीमत",
    "2567": "विज्ञ",
    "2568": "पत्नी ",
    "2569": "आईपी",
    "2570": "बयान",
    "2571": "ी ने ",
    "2572": "े पर ",
    "2573": "लगभग ",
    "2574": "पढ़",
    "2575": "मामल",
    "2576": "धि ",
    "2577": "लखनऊ",
    "2578": "आवश्यक",
    "2579": "लगभग",
    "2580": "सकते हैं",
    "2581": "नुकसान",
    "2582": "खिलाफ ",
    "2583": "दिखाई ",
    "2584": "यहां",
    "2585": "क से ",
    "2586": "व्यक्त",
    "2587": "बिजली ",
    "2588": "सुविध",
    "2589": " के पास ",
    "2590": "पीएम ",
    "2591": "ने और ",
    "2592": "चरण",
    "2593": "दाम",
    "2594": "बैठक में ",
    "2595": "ना में ",
    "2596": "ः ",
    "2597": " सूच",
    "2598": " के तहत ",
    "2599": "टीवी ",
    "2600": "बर्",
    "2601": "विशेष ",
    "2602": " का कहना है कि ",
    "2603": " सके",
    "2604": "अलग ",
    "2605": "रे में ",
    "2606": "आउ",
    "2607": "क्रम ",
    "2608": "ना की ",
    "2609": "भ्रष्टा",
    "2610": "काम",
    "2611": "ारा ",
    "2612": "परीक्ष",
    "2613": "ाएं ",
    "2614": "फल ",
    "2615": "आयोजित",
    "2616": "एंड",
    "2617": "राजधान",
    "2618": "जित ",
    "2619": " मैं ",
    "2620": "र्ना",
    "2621": "शव",
    "2622": "ओ ",
    "2623": "रोड",
    "2624": " सुन",
    "2625": "बारिश",
    "2626": "ांक",
    "2627": "ा से ",
    "2628": "राज्य ",
    "2629": "खूब",
    "2630": " के बाव",
    "2631": "बता",
    "2632": " प्रशास",
    "2633": "िक्र",
    "2634": "ता का ",
    "2635": "रोग",
    "2636": " जार",
    "2637": "जीवन ",
    "2638": "ौन ",
    "2639": "दुकान",
    "2640": "प्रधान",
    "2641": " प्रधानमंत्री ",
    "2642": "ट का ",
    "2643": "बीमार",
    "2644": "होगी ",
    "2645": "भारत की ",
    "2646": "स्त्र",
    "2647": " केवल ",
    "2648": "ती हैं ",
    "2649": "ांड",
    "2650": "उन्होंने कहा कि",
    "2651": "पत्र ",
    "2652": "स्थान ",
    "2653": "जिसे ",
    "2654": "चुका है",
    "2655": "ों के साथ",
    "2656": "कोर्",
    "2657": "नियु",
    "2658": "रही हैं",
    "2659": "भाव ",
    "2660": " कुमार",
    "2661": "सवाल ",
    "2662": "सिक",
    "2663": "ड़ ",
    "2664": "आयु",
    "2665": "असल ",
    "2666": "रन",
    "2667": "प में ",
    "2668": "वरिष्ठ ",
    "2669": "दिया गया है",
    "2670": "उच्च",
    "2671": "छा",
    "2672": "जाने की ",
    "2673": " सकते हैं",
    "2674": "ंट ",
    "2675": "शहर ",
    "2676": "ऑफ",
    "2677": "विधायक",
    "2678": "बनी ",
    "2679": "नियंत्र",
    "2680": "असल",
    "2681": "समाज",
    "2682": " साथ",
    "2683": "िलो",
    "2684": "ने की कोशिश",
    "2685": " किसी भी ",
    "2686": "लिखा ",
    "2687": "   ",
    "2688": "इंत",
    "2689": "ेंगे",
    "2690": "नंबर ",
    "2691": "त और ",
    "2692": "वाद ",
    "2693": "दर ",
    "2694": "कै",
    "2695": "हूं",
    "2696": "हम्म",
    "2697": "जाते हैं",
    "2698": "थोड़",
    "2699": "पूर ",
    "2700": "अवसर पर ",
    "2701": "छह ",
    "2702": "बोधित",
    "2703": " बजे ",
    "2704": " के अनुसार ",
    "2705": "जिन",
    "2706": "मात्र ",
    "2707": "बजे ",
    "2708": "जिले",
    "2709": "स्कार ",
    "2710": " मान",
    "2711": "हट",
    "2712": "शोध",
    "2713": "जाग",
    "2714": " हम",
    "2715": "यह है कि ",
    "2716": "अने",
    "2717": "ी कार्य",
    "2718": "चले ",
    "2719": "हजार",
    "2720": "इस दौरान ",
    "2721": "ांग्रेस",
    "2722": "पित",
    "2723": "निर्देश ",
    "2724": "जाएगा ",
    "2725": "लगाया ",
    "2726": "दाख",
    "2727": "सी की ",
    "2728": "ऑफि",
    "2729": "री में ",
    "2730": "पुलिस",
    "2731": "में काम",
    "2732": "कू",
    "2733": "ोग्र",
    "2734": "अंग्रे",
    "2735": "या क",
    "2736": "गठबंध",
    "2737": "व में ",
    "2738": "रीज",
    "2739": "ष्ट ",
    "2740": "निजी ",
    "2741": "बैंक ",
    "2742": "नहीं किया ",
    "2743": "वीडियो",
    "2744": "षद",
    "2745": " से जु",
    "2746": " करोड़",
    "2747": "समी",
    "2748": "क्रिया ",
    "2749": "ी हैं ",
    "2750": "मुला",
    "2751": "प्रदेश ",
    "2752": " किया गया ",
    "2753": "महाराष्ट",
    "2754": "मेड",
    "2755": "ते हैं और ",
    "2756": " हे",
    "2757": "ंडी",
    "2758": " मी",
    "2759": "नरेंद्र मोदी ",
    "2760": "दलि",
    "2761": "अल",
    "2762": "खब",
    "2763": "हे ",
    "2764": "सम्मान",
    "2765": " होगा",
    "2766": "उंट",
    "2767": "छात्र ",
    "2768": "लिंग",
    "2769": "में कोई ",
    "2770": " सरकार ने ",
    "2771": " कभी ",
    "2772": "ुल ",
    "2773": "उच्च ",
    "2774": "है जो ",
    "2775": "्रिके",
    "2776": "ऑफ ",
    "2777": "होंगे",
    "2778": "प्रस",
    "2779": "थे और ",
    "2780": "परिण",
    "2781": " के एक ",
    "2782": "गेंदबा",
    "2783": "छि",
    "2784": " जिसमें ",
    "2785": "ंचा",
    "2786": " जे",
    "2787": "सी को ",
    "2788": "पल",
    "2789": "अन्",
    "2790": "एक स",
    "2791": "बड़",
    "2792": "पंचाय",
    "2793": "प्रकाश",
    "2794": "थी और ",
    "2795": "बारे में ",
    "2796": "ाने से ",
    "2797": "रज",
    "2798": "शुक्रवार को ",
    "2799": "पॉ",
    "2800": "्रीय ",
    "2801": "्यों ",
    "2802": "क्षे",
    "2803": " केंद्र ",
    "2804": "छोटे ",
    "2805": " जान",
    "2806": "महीने ",
    "2807": "ड़ा ",
    "2808": "मता ",
    "2809": "वर्ष में ",
    "2810": "पुर में ",
    "2811": "ट्रै",
    "2812": "सामान",
    "2813": " संगठ",
    "2814": "ों में से ",
    "2815": "ट ब",
    "2816": " करना चाह",
    "2817": "ात्मक ",
    "2818": "सुबह ",
    "2819": "परिवार ",
    "2820": "ेश ",
    "2821": "नाम पर ",
    "2822": "एयर",
    "2823": "ता था",
    "2824": "टन ",
    "2825": "गुप्",
    "2826": "तरफ से ",
    "2827": "हरे ",
    "2828": "तीश",
    "2829": "बुर",
    "2830": "दश",
    "2831": "रीक्षा ",
    "2832": "दल ",
    "2833": "गिराव",
    "2834": "दिल्ली में ",
    "2835": "मुख्यमंत्र",
    "2836": "रोक ",
    "2837": "मीटर ",
    "2838": "उम्",
    "2839": "हाल ही में ",
    "2840": "पश्चि",
    "2841": "सिर्फ ",
    "2842": "वर्ण",
    "2843": "म की ",
    "2844": "असर ",
    "2845": "राइ",
    "2846": "तमाम",
    "2847": "जरी",
    "2848": "राज्य में ",
    "2849": "टर्",
    "2850": "वही ",
    "2851": "ह्",
    "2852": "ाने वाले ",
    "2853": "उम्मीद ",
    "2854": "यं",
    "2855": "बिल्",
    "2856": "न्द्र",
    "2857": "शुरू हो ",
    "2858": "जाकर ",
    "2859": "ा किसी ",
    "2860": " पंच",
    "2861": "म और ",
    "2862": "त का ",
    "2863": "ंदर ",
    "2864": "आरक्ष",
    "2865": "एसपी ",
    "2866": " की ओर से ",
    "2867": "ओं ने ",
    "2868": "राजस्थान",
    "2869": "ार्रवाई",
    "2870": "चीज",
    "2871": "भूमिका ",
    "2872": "सिद्ध",
    "2873": "मार्ट",
    "2874": "अग्र",
    "2875": "ों के साथ ",
    "2876": " काल",
    "2877": "रॉ",
    "2878": "उपस्थित ",
    "2879": "उपा",
    "2880": "आपको",
    "2881": "ा के",
    "2882": "हत्य",
    "2883": " कश्मी",
    "2884": "वाहन",
    "2885": "ंसी ",
    "2886": "ान्",
    "2887": "काश ",
    "2888": " कैसे ",
    "2889": " बढ़",
    "2890": "तुम्ह",
    "2891": "दरअसल ",
    "2892": "रानी ",
    "2893": "जम्मू",
    "2894": " बच्च",
    "2895": "शानदार ",
    "2896": "ियोज",
    "2897": "त है",
    "2898": "वारी ",
    "2899": "छत्",
    "2900": "कुछ ",
    "2901": "भविष्य",
    "2902": "भव ",
    "2903": "सोच",
    "2904": "फोटो ",
    "2905": "तभी ",
    "2906": " कोह",
    "2907": "प्रतिनि",
    "2908": "अक्ट",
    "2909": "ील",
    "2910": "त्ये",
    "2911": "ंट्र",
    "2912": "नु",
    "2913": "फू",
    "2914": "ते थे",
    "2915": "नर",
    "2916": "तथ",
    "2917": "हन ",
    "2918": "र्मचार",
    "2919": "विदेशी ",
    "2920": "अब तक ",
    "2921": "देने की ",
    "2922": "मंगलवार को ",
    "2923": "थाना ",
    "2924": "मार्च",
    "2925": " हजार ",
    "2926": "युवा",
    "2927": "सी क",
    "2928": "पर्य",
    "2929": "मेंट ",
    "2930": "मुद्र",
    "2931": "गांव में ",
    "2932": "तंत्र ",
    "2933": "पी के ",
    "2934": "मां ",
    "2935": "िसी भी ",
    "2936": "न्हों",
    "2937": "ित हो",
    "2938": "ाते हुए ",
    "2939": " पिछले ",
    "2940": "स्टर ",
    "2941": "ंपनिय",
    "2942": "रविवार को ",
    "2943": "तन ",
    "2944": "जरिए ",
    "2945": "इतनी ",
    "2946": "ष्टि",
    "2947": "जल ",
    "2948": "इच्छ",
    "2949": "गुर",
    "2950": "ा काम",
    "2951": "दर्शन ",
    "2952": "मुश्किल",
    "2953": "दूसरा ",
    "2954": " बहु",
    "2955": "आने वाले ",
    "2956": "सुरक्षा ",
    "2957": " माम",
    "2958": "सूत्र",
    "2959": "पंजाब",
    "2960": "वेबसाइ",
    "2961": " किया जाएगा",
    "2962": "पहुंच ",
    "2963": "लाह",
    "2964": "छत्तीस",
    "2965": "हिमा",
    "2966": "ग्राह",
    "2967": "मंजू",
    "2968": "रही थी",
    "2969": "हरी ",
    "2970": "अच्छे ",
    "2971": "आर्थिक ",
    "2972": "डिग्र",
    "2973": "श्रद्ध",
    "2974": "ा कार्य",
    "2975": "अंतिम ",
    "2976": "पार्",
    "2977": "योगी ",
    "2978": "मण",
    "2979": " पूरे ",
    "2980": "चढ़",
    "2981": "सुप्रीम कोर्",
    "2982": "मौका ",
    "2983": "ाता है",
    "2984": "इस मामले में ",
    "2985": "तक पहुंच",
    "2986": " के कारण ",
    "2987": "रहे थे",
    "2988": "शनिवार को ",
    "2989": "शेयर",
    "2990": "चर ",
    "2991": "नम",
    "2992": "ें क",
    "2993": "तियोग",
    "2994": " स्तर ",
    "2995": "साठी ",
    "2996": "मेल",
    "2997": "ंगा",
    "2998": "बोर्ड",
    "2999": "क्या ",
    "3000": "अंक",
    "3001": "े के ",
    "3002": "हत",
    "3003": "बुल",
    "3004": "श्वर ",
    "3005": "इस क",
    "3006": "तरफ ",
    "3007": "नाथ ",
    "3008": "चार्",
    "3009": "कात",
    "3010": "शिकायत",
    "3011": "राज ",
    "3012": "ील ",
    "3013": "पहचान",
    "3014": "जवाब",
    "3015": "िए",
    "3016": "देख ",
    "3017": "को ",
    "3018": "थान",
    "3019": "मुंबई ",
    "3020": "मश",
    "3021": " करेंगे ",
    "3022": "देखकर ",
    "3023": "गर्म",
    "3024": " रुपये ",
    "3025": "ायी ",
    "3026": "क है",
    "3027": "ली में ",
    "3028": "पीड़",
    "3029": "अक",
    "3030": "रें",
    "3031": "न प्र",
    "3032": "अक्ष",
    "3033": "खुला",
    "3034": "समे",
    "3035": "मारो",
    "3036": "धारण",
    "3037": "पांच ",
    "3038": "गयी ",
    "3039": "विश्वविद्यालय",
    "3040": " करती है",
    "3041": "खाना ",
    "3042": "सही ",
    "3043": "पत्रकार",
    "3044": "बीच",
    "3045": "नाव",
    "3046": "्यु",
    "3047": "ठे",
    "3048": "डॉ ",
    "3049": "ोर ",
    "3050": "क ने ",
    "3051": "मामले की ",
    "3052": "गर",
    "3053": "सभा",
    "3054": "हाल ",
    "3055": "कार्य",
    "3056": "तुर",
    "3057": "ों द्वारा ",
    "3058": " सकती है",
    "3059": "तान",
    "3060": "जाये",
    "3061": " सिर्फ ",
    "3062": "बड़ी ",
    "3063": "देना ",
    "3064": "नवंब",
    "3065": "लगी ",
    "3066": "शुल्",
    "3067": "ट्रोल",
    "3068": " क्यों ",
    "3069": " जबकि ",
    "3070": "के में ",
    "3071": "प्राप्त ",
    "3072": "ब्ल",
    "3073": "नए",
    "3074": "बयान ",
    "3075": "नी की ",
    "3076": "पसंद",
    "3077": "अस्पताल में ",
    "3078": "टी के ",
    "3079": "ूर्",
    "3080": "अपराध",
    "3081": "भर में ",
    "3082": "था कि",
    "3083": "देवी ",
    "3084": "निर्णय ",
    "3085": "भेज",
    "3086": "सप",
    "3087": "आम",
    "3088": "वाच",
    "3089": "मात्र",
    "3090": "रहेगा",
    "3091": "नान",
    "3092": "धर्",
    "3093": "कल",
    "3094": " हों",
    "3095": "हो सकता है",
    "3096": "चंद्र",
    "3097": "जुलाई",
    "3098": "शाह ",
    "3099": "न्यायालय",
    "3100": "बिहार ",
    "3101": "आदमी ",
    "3102": "अमेरिकी ",
    "3103": "होता है ",
    "3104": "ओं में ",
    "3105": " की थी",
    "3106": "अनुम",
    "3107": " सेवा ",
    "3108": "ामु",
    "3109": "अधिकार ",
    "3110": "सेव",
    "3111": "नीय ",
    "3112": "ंगी ",
    "3113": "भगवान ",
    "3114": "ों की क",
    "3115": "बुधवार को ",
    "3116": "तरि",
    "3117": "भीतर ",
    "3118": "कई ",
    "3119": "एक्ट",
    "3120": "वजह ",
    "3121": " मार्",
    "3122": "उसमें ",
    "3123": " मे ",
    "3124": "फर",
    "3125": "मंदिर ",
    "3126": "समू",
    "3127": " कांग्रेस ",
    "3128": "विक ",
    "3129": "जानकारी के ",
    "3130": "ग़",
    "3131": "मोबाइल ",
    "3132": "विकेट ",
    "3133": "ट्वीट",
    "3134": "मज",
    "3135": "मूल्य",
    "3136": "रिलीज",
    "3137": "उन्होंने बताया कि ",
    "3138": "उम्मीदवार ",
    "3139": "पहली बार ",
    "3140": "या फिर ",
    "3141": "जिक ",
    "3142": "दिया था",
    "3143": "ओं से ",
    "3144": "दक्षिण ",
    "3145": "दर्द",
    "3146": "थी कि ",
    "3147": "शराब",
    "3148": "ी के",
    "3149": "ाते हैं ",
    "3150": "शक्ति",
    "3151": "ति में ",
    "3152": "लंबे ",
    "3153": "लेट",
    "3154": "युद्ध",
    "3155": "लां",
    "3156": "भा ",
    "3157": "नर्",
    "3158": "मैच में ",
    "3159": "क्सर ",
    "3160": "खी ",
    "3161": "वाइ",
    "3162": "देखने को ",
    "3163": "वे क",
    "3164": "रल ",
    "3165": "झू",
    "3166": "नेतृत्व",
    "3167": "ट्रो",
    "3168": "हमल",
    "3169": "उम्मीदवार",
    "3170": "ाने पर ",
    "3171": "इस फिल्म",
    "3172": "स्य ",
    "3173": "थिय",
    "3174": "प के ",
    "3175": "चौध",
    "3176": "सलमान",
    "3177": " सुविध",
    "3178": "तरीके से ",
    "3179": "मुक",
    "3180": "देता है",
    "3181": "खी",
    "3182": "नॉ",
    "3183": "अगस्त",
    "3184": "आतंकवाद",
    "3185": "जन्म",
    "3186": " जैसे ",
    "3187": "मई",
    "3188": "होना ",
    "3189": "स्थिति",
    "3190": "लें ",
    "3191": "पार्टी के ",
    "3192": "रिपोर्ट",
    "3193": "लगाए ",
    "3194": "ट्वि",
    "3195": "आयो",
    "3196": "वाज",
    "3197": "नहीं है ",
    "3198": "वीर ",
    "3199": "े को ",
    "3200": "मूर्",
    "3201": "एल ",
    "3202": "वक्ता ",
    "3203": "बॉलीवुड",
    "3204": "लोड",
    "3205": "नंब",
    "3206": "प्रदान",
    "3207": "मिला ",
    "3208": "फायदा ",
    "3209": "षि ",
    "3210": "मंच",
    "3211": "ऊर्",
    "3212": "ं कि",
    "3213": "हत्या",
    "3214": "तीय ",
    "3215": "ार्ड ",
    "3216": "ट्रां",
    "3217": "रिंग",
    "3218": "हां",
    "3219": "ानि",
    "3220": "फी ",
    "3221": "ख्य",
    "3222": "मला ",
    "3223": "गोल",
    "3224": "व्यापार",
    "3225": "निश्चित",
    "3226": "जाएंगे",
    "3227": "एक ही ",
    "3228": "अचान",
    "3229": "मगर ",
    "3230": "क्कर ",
    "3231": "गौरत",
    "3232": "प्रभावि",
    "3233": "जाता ",
    "3234": "रिपोर्ट ",
    "3235": "इनके ",
    "3236": " समाज",
    "3237": "जनता ",
    "3238": "विचार ",
    "3239": "शहर में ",
    "3240": "टल",
    "3241": "मित ",
    "3242": "विमान",
    "3243": "नियर ",
    "3244": "झे",
    "3245": "कुल ",
    "3246": "एक क",
    "3247": "समस्या ",
    "3248": "ग्ला",
    "3249": " पूर्व",
    "3250": "ति की ",
    "3251": "चली ",
    "3252": "हरियाणा ",
    "3253": "ों के लिए",
    "3254": "अमरी",
    "3255": "शल मीडिया पर ",
    "3256": "क का ",
    "3257": "ळे ",
    "3258": "नज",
    "3259": "टीम ने ",
    "3260": " बल्",
    "3261": "ते हैं तो ",
    "3262": "मैदान",
    "3263": "यूपी ",
    "3264": "नती",
    "3265": "महसू",
    "3266": "लाइन",
    "3267": "ों के क",
    "3268": "अतिरिक्त ",
    "3269": "उपाध्य",
    "3270": "विभाग के ",
    "3271": "पन ",
    "3272": "भूमि",
    "3273": "े कि",
    "3274": "तीसरे ",
    "3275": "जिन ",
    "3276": "खुद ",
    "3277": "टन",
    "3278": "जी क",
    "3279": "यह स",
    "3280": "ान और ",
    "3281": "चंडी",
    "3282": "सामना कर",
    "3283": " बु",
    "3284": "ग्रु",
    "3285": "क्टर",
    "3286": "जुर्",
    "3287": " परीक्ष",
    "3288": "मुद्दे ",
    "3289": " से कम ",
    "3290": "जैसी ",
    "3291": "ल्या ",
    "3292": "उड़",
    "3293": "झा",
    "3294": "नल",
    "3295": "री से ",
    "3296": "जीवन",
    "3297": "वही",
    "3298": "ने अपनी ",
    "3299": "एक और ",
    "3300": "नाइ",
    "3301": "प्रतिशत ",
    "3302": "रुपये",
    "3303": "मुताबिक",
    "3304": "षण ",
    "3305": "कश्मी",
    "3306": "डिंग",
    "3307": "बढ़ ",
    "3308": "गए थे",
    "3309": "परेशान",
    "3310": "संचाल",
    "3311": "छोड़",
    "3312": "नी चाहिए",
    "3313": "मतदान",
    "3314": "बदलाव",
    "3315": "तेज ",
    "3316": "स्वास्थ्य",
    "3317": " करने पर ",
    "3318": "मल",
    "3319": " की गई ",
    "3320": "अध्यय",
    "3321": "नाएं ",
    "3322": " समस",
    "3323": "लॉन्",
    "3324": "आत्",
    "3325": "पहले",
    "3326": "मत ",
    "3327": "उत्तरा",
    "3328": "उंड",
    "3329": "घोषित",
    "3330": " पार",
    "3331": " सरकारी ",
    "3332": "ली की ",
    "3333": " सामने ",
    "3334": "जाम ",
    "3335": " महा",
    "3336": "खाद",
    "3337": "सोमवार को ",
    "3338": "खिलाड़",
    "3339": "ऑस्ट्रे",
    "3340": "शार",
    "3341": " साथ ",
    "3342": "ार में ",
    "3343": "धार्म",
    "3344": "झार",
    "3345": "तिक्र",
    "3346": "िता ",
    "3347": "इंग्लैंड",
    "3348": "पाठ",
    "3349": "ज़ ",
    "3350": "आर्",
    "3351": "भरो",
    "3352": "ब्रे",
    "3353": "सात",
    "3354": "ियों को",
    "3355": "कों की ",
    "3356": "उदा",
    "3357": "पत",
    "3358": "अवै",
    "3359": "सीबी",
    "3360": "ट्यू",
    "3361": "न्होंने ",
    "3362": " के साथ ही ",
    "3363": "नहीं हो ",
    "3364": "व्यवह",
    "3365": " कौ",
    "3366": "आपने ",
    "3367": "गलत ",
    "3368": " कर रहा है",
    "3369": "एश",
    "3370": "गौरतलब ",
    "3371": " करने वाल",
    "3372": " करोड़ ",
    "3373": "इसी",
    "3374": "राया ",
    "3375": " स्म",
    "3376": "वात",
    "3377": " किये ",
    "3378": "साफ",
    "3379": "ई है",
    "3380": "रदार ",
    "3381": " की बात",
    "3382": "विद",
    "3383": "री है",
    "3384": "रहता है",
    "3385": "वर्तमान",
    "3386": "उत्तर",
    "3387": " के आधार पर ",
    "3388": "याद ",
    "3389": "जवान",
    "3390": " पार्टी ",
    "3391": "पहले ही ",
    "3392": "लाह ",
    "3393": "मॉड",
    "3394": "उपलब्ध ",
    "3395": "गढ़",
    "3396": " करेगा",
    "3397": "चित ",
    "3398": "गोली ",
    "3399": " क्ष",
    "3400": "रिकॉर्ड",
    "3401": "क पर ",
    "3402": "सात ",
    "3403": " हर ",
    "3404": "हाथ ",
    "3405": "जिय",
    "3406": "दें ",
    "3407": "फेसब",
    "3408": "घंटे ",
    "3409": "गुप्ता ",
    "3410": " के बाहर ",
    "3411": "आत्म",
    "3412": "रही है ",
    "3413": "अहम ",
    "3414": "बच्चे ",
    "3415": "नई",
    "3416": "टिप्",
    "3417": "आउट",
    "3418": "बचा",
    "3419": "री के ",
    "3420": "ा है और ",
    "3421": " पढ़",
    "3422": "ांना ",
    "3423": "डु",
    "3424": "जर्",
    "3425": "फ्रे",
    "3426": "शिकायत ",
    "3427": "िया को ",
    "3428": "प्राप्त",
    "3429": "इस अवसर पर ",
    "3430": "्यादा ",
    "3431": "भाल",
    "3432": " को सं",
    "3433": "पाए",
    "3434": "इस्लाम",
    "3435": "हमारा ",
    "3436": "कर्ता ",
    "3437": "करण ",
    "3438": "भी है",
    "3439": "शेयर ",
    "3440": "राहुल गांधी ",
    "3441": "वैज्ञान",
    "3442": "ल्ड ",
    "3443": "े को",
    "3444": "निया ",
    "3445": "सन ",
    "3446": "परेश",
    "3447": "तत्काल",
    "3448": "यदि",
    "3449": "े तो ",
    "3450": "गया है ",
    "3451": "गाँ",
    "3452": "मुदाय",
    "3453": "नीतीश",
    "3454": "आण",
    "3455": "गुजरा",
    "3456": "भाजप",
    "3457": "उद्देश",
    "3458": "ब्लॉ",
    "3459": "ट और ",
    "3460": " स्वी",
    "3461": "समस्या",
    "3462": "ान ने ",
    "3463": "रुण",
    "3464": "ओव",
    "3465": "दोपह",
    "3466": "लाय",
    "3467": "शौ",
    "3468": "संख्या में ",
    "3469": "धीरे ",
    "3470": "गया और ",
    "3471": "लेकर क",
    "3472": "री की ",
    "3473": "स्थान पर ",
    "3474": "प्री",
    "3475": " पड़",
    "3476": "भगवान",
    "3477": "याच",
    "3478": "जाने वाले ",
    "3479": " करोड़ रुपये ",
    "3480": "इसलिए",
    "3481": "ांग्रेस के ",
    "3482": "जाति",
    "3483": "भुगतान",
    "3484": "संक",
    "3485": "खिलाड़ी ",
    "3486": "मान्य",
    "3487": "सरकार के ",
    "3488": "ैंड",
    "3489": "प्रबंध",
    "3490": "बिहार",
    "3491": "बाब",
    "3492": "दै",
    "3493": "्या क",
    "3494": "महत्वपूर्ण ",
    "3495": "उपभो",
    "3496": "चर्",
    "3497": " जहां ",
    "3498": "नहीं आ",
    "3499": "मेडिक",
    "3500": "नीति ",
    "3501": "ीमत ",
    "3502": "ट्रंप",
    "3503": " सित",
    "3504": " किया जा रहा है",
    "3505": " जु",
    "3506": "उनको ",
    "3507": "इलेक्",
    "3508": "कों के ",
    "3509": "विराट",
    "3510": "सभा में ",
    "3511": "हूं ",
    "3512": "आठ",
    "3513": "से जु",
    "3514": " कंपनिय",
    "3515": "स्ताव",
    "3516": "ति का ",
    "3517": "साह",
    "3518": "अंतर्",
    "3519": "उन्होंने क",
    "3520": " बना ",
    "3521": "ताल ",
    "3522": "गया है कि ",
    "3523": "पारी ",
    "3524": " करती ",
    "3525": "मौजूद",
    "3526": "दाद",
    "3527": " में भी ",
    "3528": "न्या",
    "3529": " जिससे ",
    "3530": "तुम ",
    "3531": "डाउन",
    "3532": " की गई है",
    "3533": "बने",
    "3534": "चंद",
    "3535": "में कई ",
    "3536": "कों में ",
    "3537": "बेहद ",
    "3538": "भले ",
    "3539": "नौकरी ",
    "3540": "लोच",
    "3541": "शन के ",
    "3542": "निर",
    "3543": "हो गया",
    "3544": "परिजन",
    "3545": "ड्राइ",
    "3546": "फैसल",
    "3547": "ांच्या ",
    "3548": "बाजार",
    "3549": "मुस्लिम ",
    "3550": "नवा",
    "3551": " जिसे ",
    "3552": "चर",
    "3553": "शायद ",
    "3554": "ी की क",
    "3555": "थित ",
    "3556": "ता है तो ",
    "3557": "होने की ",
    "3558": "खोल",
    "3559": "हित्य",
    "3560": "रहा था ",
    "3561": "जिला",
    "3562": " कर रहे हैं ",
    "3563": "पेय",
    "3564": "मंत्रालय",
    "3565": "दिसंब",
    "3566": "राण",
    "3567": "जीएस",
    "3568": "चर्चा ",
    "3569": " किया जाता है",
    "3570": "ली के ",
    "3571": "अध्या",
    "3572": "ों के बीच",
    "3573": "ा क्षेत्र",
    "3574": "प्रवेश",
    "3575": "जा रहे हैं",
    "3576": "निर्धार",
    "3577": "धम",
    "3578": "इन्हें ",
    "3579": "घोट",
    "3580": "लक्ष्य",
    "3581": "खड़",
    "3582": "हिमाचल",
    "3583": "संपर्",
    "3584": "शामिल हैं",
    "3585": "ड्यू",
    "3586": "तीय",
    "3587": "यात्रा ",
    "3588": "शही",
    "3589": "चीन ",
    "3590": "ने कहा है कि ",
    "3591": "ा कहना है कि ",
    "3592": "ंज",
    "3593": "आया है",
    "3594": "डॉल",
    "3595": "यं ",
    "3596": " कारण ",
    "3597": "ट को ",
    "3598": "माइ",
    "3599": "डां",
    "3600": "प्रयास",
    "3601": " पुलिस ने ",
    "3602": "में कुछ ",
    "3603": "वेस्ट",
    "3604": "दस ",
    "3605": "विरोधी ",
    "3606": "मामले",
    "3607": " सामान",
    "3608": "दिल्ली के ",
    "3609": "रो ",
    "3610": "ण्",
    "3611": "लेकिन क",
    "3612": "मौजूदा ",
    "3613": " साइ",
    "3614": "सत",
    "3615": "स्थ्य ",
    "3616": "सिंग",
    "3617": "ाजिक ",
    "3618": "मुद्द",
    "3619": "थम ",
    "3620": "द्द",
    "3621": "छो",
    "3622": "बनाकर ",
    "3623": "हुए हैं",
    "3624": "ध्",
    "3625": "प्रदेश के ",
    "3626": "लव",
    "3627": " मैच",
    "3628": "उपभोक्",
    "3629": "ताव",
    "3630": "विजे",
    "3631": "चां",
    "3632": "पौ",
    "3633": "वरण",
    "3634": "आयोजित ",
    "3635": "आंक",
    "3636": " करण्या",
    "3637": "अक्सर ",
    "3638": "ा किया है",
    "3639": " कित",
    "3640": " कांग्रेस",
    "3641": "शर",
    "3642": " का नाम ",
    "3643": "े हैं",
    "3644": "सहाय",
    "3645": "्रीन ",
    "3646": "भेज ",
    "3647": "रहने वाले ",
    "3648": "प्रमुख ",
    "3649": "प्रयोग",
    "3650": "होकर ",
    "3651": "रख ",
    "3652": "खत",
    "3653": " सुरक्ष",
    "3654": "कंप",
    "3655": "थि ",
    "3656": "है लेकिन ",
    "3657": "ऑनलाइन ",
    "3658": "दी की ",
    "3659": "ों के ब",
    "3660": "अवसर ",
    "3661": "आंख",
    "3662": "संबंधित ",
    "3663": " बॉ",
    "3664": "शॉ",
    "3665": "भागी",
    "3666": "एक बार फिर ",
    "3667": "आतंकी ",
    "3668": " पंचाय",
    "3669": "पुरुष",
    "3670": " ब्र",
    "3671": "उल्लेख",
    "3672": "इस्ती",
    "3673": "बेट",
    "3674": "लाभ ",
    "3675": "इजा",
    "3676": " करेगी",
    "3677": "भ ",
    "3678": "भोज",
    "3679": "देते हुए ",
    "3680": "ट्स",
    "3681": "मुलाकात",
    "3682": " बत",
    "3683": "ल्प ",
    "3684": " कई",
    "3685": " की गई",
    "3686": "मौत",
    "3687": "ाती ",
    "3688": "आवेदन",
    "3689": "लो ",
    "3690": "लोगों का ",
    "3691": " जिसके ",
    "3692": "आपूर्",
    "3693": " से ही ",
    "3694": "ानी से ",
    "3695": "खर ",
    "3696": " कर्मचार",
    "3697": "शामिल हो",
    "3698": "सिटी ",
    "3699": "निर्वाच",
    "3700": "इलाज",
    "3701": "खराब",
    "3702": "दिए",
    "3703": "चंडीगढ़",
    "3704": "डर",
    "3705": "दिग्",
    "3706": "बिग",
    "3707": "ग्रहण",
    "3708": " सचिव ",
    "3709": " सदस्य",
    "3710": "एक प्र",
    "3711": "अफ्री",
    "3712": "जमकर ",
    "3713": "गुरुवार को ",
    "3714": " किया और ",
    "3715": "सून ",
    "3716": "खुद को ",
    "3717": "यूरो",
    "3718": "शुरू कर ",
    "3719": "भाषा ",
    "3720": " के बावजूद ",
    "3721": "नू",
    "3722": "भारत को ",
    "3723": "सरकार की ",
    "3724": "अनुमति ",
    "3725": "ट क",
    "3726": "अशो",
    "3727": "विश्वास ",
    "3728": "धिकारी ",
    "3729": "गयी",
    "3730": "अपन",
    "3731": "णे ",
    "3732": "दिय",
    "3733": "सीएम ",
    "3734": "ी के लिए ",
    "3735": "रक्षा ",
    "3736": " हिंद",
    "3737": "सड़क",
    "3738": "ें तो ",
    "3739": "हिंदी ",
    "3740": "श्म",
    "3741": "बेच",
    "3742": "प्रकार",
    "3743": "आज भी ",
    "3744": " के कारण",
    "3745": "सांसद ",
    "3746": "अभी तक ",
    "3747": "इसके साथ ही ",
    "3748": "बैठक ",
    "3749": " संस्थ",
    "3750": "ाते हुए",
    "3751": "मैच ",
    "3752": "भाजपा के ",
    "3753": "आकर्",
    "3754": "ियों और ",
    "3755": "बीच ",
    "3756": "आगामी ",
    "3757": "सुनवाई",
    "3758": "जरीवाल",
    "3759": "ता था ",
    "3760": "नल में ",
    "3761": "तेजी से ",
    "3762": "देव ",
    "3763": "संद ",
    "3764": "इलाके में ",
    "3765": "सीसी",
    "3766": "होने ",
    "3767": "्यो",
    "3768": "प्तान ",
    "3769": "विधानसभा चुनाव",
    "3770": "जी की ",
    "3771": "सिए",
    "3772": "ही है",
    "3773": " हाल",
    "3774": "अनुभव",
    "3775": " प्रस",
    "3776": " साब",
    "3777": "पर्या",
    "3778": "मारी ",
    "3779": " लाख ",
    "3780": "े का ",
    "3781": "नीय",
    "3782": "दूसरे",
    "3783": "निर्णय",
    "3784": "आजाद",
    "3785": "हफ्",
    "3786": "मेर",
    "3787": "यहाँ",
    "3788": " सीट",
    "3789": "छोटी ",
    "3790": "टी की ",
    "3791": "केश",
    "3792": "चुनावी ",
    "3793": " स्थित ",
    "3794": "बंगाल",
    "3795": "माण ",
    "3796": "बेटी ",
    "3797": "ज पर ",
    "3798": "निकल ",
    "3799": "भार ",
    "3800": " हर",
    "3801": "विवे",
    "3802": " फीसदी ",
    "3803": "ा की",
    "3804": " से अधिक ",
    "3805": " होती है",
    "3806": " के कार्य",
    "3807": "गरीब",
    "3808": " सिंह ने ",
    "3809": "भूमि ",
    "3810": "प्राथम",
    "3811": "बाजार में ",
    "3812": "यूनिवर्",
    "3813": "मुख ",
    "3814": "ेगा ",
    "3815": "ालय ने ",
    "3816": "तरह की ",
    "3817": "ुक ",
    "3818": " कार्रवाई",
    "3819": " जनता ",
    "3820": "झट",
    "3821": " हुई",
    "3822": "वायरल",
    "3823": "इंजी",
    "3824": "ठा ",
    "3825": "से में ",
    "3826": "बीएस",
    "3827": "छोड़ ",
    "3828": "राजी",
    "3829": "मोहम्म",
    "3830": "ना और ",
    "3831": "इतने ",
    "3832": "शीर्ष",
    "3833": "पुलिस को ",
    "3834": "जांच ",
    "3835": "जरूर ",
    "3836": "ियों पर ",
    "3837": "एसो",
    "3838": "शिक्षण",
    "3839": "अथ",
    "3840": "हानी ",
    "3841": "गया कि ",
    "3842": "यहाँ ",
    "3843": "वां ",
    "3844": "स्तर पर ",
    "3845": "चले",
    "3846": "नहीं कर",
    "3847": "तहत",
    "3848": "क्शन",
    "3849": "आकर ",
    "3850": "थि",
    "3851": " पूछ",
    "3852": "होने वाले ",
    "3853": "वाहन ",
    "3854": "याचिका ",
    "3855": "्स ",
    "3856": "इस दौरान",
    "3857": "ाण",
    "3858": "ात्मक",
    "3859": " समू",
    "3860": "बारी ",
    "3861": "चाहे ",
    "3862": "वाण",
    "3863": "िज",
    "3864": "िर ",
    "3865": "ातर ",
    "3866": "ाधी",
    "3867": "वैश्",
    "3868": "खूबसू",
    "3869": "एंट",
    "3870": "आहेत",
    "3871": " कप",
    "3872": "शुरुआत",
    "3873": "तलाश",
    "3874": "जा रहे ",
    "3875": "अनेक ",
    "3876": "आधार ",
    "3877": "र्जी ",
    "3878": " पांच",
    "3879": " मिले",
    "3880": "ताछ",
    "3881": "खबर",
    "3882": "ंडर ",
    "3883": "पुलिस के ",
    "3884": " पहली ",
    "3885": "रामद",
    "3886": "हूँ",
    "3887": "ाले ",
    "3888": "तम",
    "3889": "इमर",
    "3890": "्योंकि",
    "3891": "अके",
    "3892": "बड़ा ",
    "3893": "वाह ",
    "3894": "वस्तु",
    "3895": "वार की ",
    "3896": "नें ",
    "3897": "ज से ",
    "3898": "सलमान ",
    "3899": "मुसलमान",
    "3900": "सिय",
    "3901": "वं",
    "3902": "बदल ",
    "3903": "हालांकि",
    "3904": "इंस्ट",
    "3905": " पेश",
    "3906": "चौधरी ",
    "3907": "जी के ",
    "3908": "रोजगार ",
    "3909": "ना का ",
    "3910": "मिश्र",
    "3911": "म का ",
    "3912": "व्र",
    "3913": "अनुर",
    "3914": "माँ",
    "3915": "ेंगे ",
    "3916": "बढ़ा",
    "3917": "आश",
    "3918": " कॉले",
    "3919": "खार",
    "3920": "नारे ",
    "3921": "द्दी",
    "3922": "जिले के ",
    "3923": "सचिव ",
    "3924": "दें",
    "3925": "ठाकु",
    "3926": "इरा",
    "3927": "ंडा ",
    "3928": "वकी",
    "3929": "कों ",
    "3930": "बहुत ही ",
    "3931": "ल क",
    "3932": "मस्",
    "3933": "व्यापार ",
    "3934": " प्रबंध",
    "3935": "गतिविध",
    "3936": "नाराय",
    "3937": "भारत ने ",
    "3938": "मांग ",
    "3939": "राज्य के ",
    "3940": "बंद ",
    "3941": "तक की ",
    "3942": "प्रदेश में ",
    "3943": "वेश ",
    "3944": "जुट",
    "3945": "धा",
    "3946": "निदेशक ",
    "3947": "नाय",
    "3948": "दक्षिण",
    "3949": " समारो",
    "3950": "बीते ",
    "3951": "ी कै",
    "3952": " हमारे ",
    "3953": "आधार पर ",
    "3954": "रास्ता ",
    "3955": "गांध",
    "3956": " पत्र ",
    "3957": "श्रेष्ठ",
    "3958": "अमित ",
    "3959": "इंडिय",
    "3960": "वायु",
    "3961": "नवी",
    "3962": "टेक्",
    "3963": "विशेषज्ञ",
    "3964": "गया था ",
    "3965": "माहौ",
    "3966": " की प्र",
    "3967": "फिर भी ",
    "3968": "ाना चाह",
    "3969": "आदेश",
    "3970": "इका",
    "3971": "राब ",
    "3972": "निशाना ",
    "3973": "फैसले",
    "3974": "पता चल",
    "3975": "मदद से ",
    "3976": " स्वास्थ्य",
    "3977": "यह क",
    "3978": " होगी",
    "3979": " प्रदान",
    "3980": "ा कह",
    "3981": "नी को ",
    "3982": "काउंट",
    "3983": "हिं",
    "3984": "नाम से ",
    "3985": "न हो ",
    "3986": "स्थानीय ",
    "3987": "सहित ",
    "3988": "रंग ",
    "3989": "भर्ती ",
    "3990": " पाकिस्तान",
    "3991": "पन्न ",
    "3992": "दिया गया",
    "3993": "जा रहा है कि ",
    "3994": "शत",
    "3995": "नदी ",
    "3996": "ट्टी ",
    "3997": " बन ",
    "3998": "द्योगिक",
    "3999": "डू",
    "4000": "इनमें ",
    "4001": "ब्यू",
    "4002": "ेगी",
    "4003": "चीनी ",
    "4004": "नजर आ ",
    "4005": "दाता ",
    "4006": "अचानक ",
    "4007": "ग्रामीण ",
    "4008": "िस",
    "4009": "मेहन",
    "4010": "दिख ",
    "4011": "ल्याण",
    "4012": "जबकि",
    "4013": "मस",
    "4014": " की जा रही है",
    "4015": "नाक ",
    "4016": "सम ",
    "4017": "चुनौती ",
    "4018": "ठाक",
    "4019": " से पहले ",
    "4020": "निपट",
    "4021": "चित्र",
    "4022": "बध",
    "4023": "पात",
    "4024": " का भी ",
    "4025": "दबाव",
    "4026": " की ओर ",
    "4027": "मुकाबले ",
    "4028": "बारा ",
    "4029": "न ही ",
    "4030": " होने की ",
    "4031": "हिसाब",
    "4032": "दुनिया में ",
    "4033": " के बे",
    "4034": "डायरे",
    "4035": "आधारित ",
    "4036": "राजधानी ",
    "4037": "ाय ",
    "4038": "में के",
    "4039": "ोई",
    "4040": "शादी",
    "4041": "इलेक्ट्र",
    "4042": "बड़े ",
    "4043": "विश्व ",
    "4044": "्रो",
    "4045": " करना चाहिए",
    "4046": "उठा ",
    "4047": "देने के लिए ",
    "4048": "मुकद",
    "4049": " कहीं ",
    "4050": " बना",
    "4051": "शेय",
    "4052": "हिंदु",
    "4053": " कारो",
    "4054": "लगता है",
    "4055": "स्तान",
    "4056": "मंद",
    "4057": "जिसका ",
    "4058": "मजबूत ",
    "4059": "शख्",
    "4060": " में एक ",
    "4061": " के प्रति ",
    "4062": "जल्दी ",
    "4063": "उधर ",
    "4064": "शुक्",
    "4065": "न के लिए ",
    "4066": "मर ",
    "4067": " स्प",
    "4068": "अंदा",
    "4069": "ना ही ",
    "4070": "चेयर",
    "4071": "गांव के ",
    "4072": "संस्थ",
    "4073": "गैर ",
    "4074": "राष्ट्रपति",
    "4075": "गृह ",
    "4076": "हरण",
    "4077": "इंद",
    "4078": "बन्",
    "4079": "रिज",
    "4080": "ठे ",
    "4081": " समि",
    "4082": "इन दिनों ",
    "4083": " पंजा",
    "4084": "बेहतरी",
    "4085": "अभियान",
    "4086": "हाइ",
    "4087": "पुर के ",
    "4088": "बेहद",
    "4089": "ना है कि ",
    "4090": "राहत ",
    "4091": "ट्स ",
    "4092": "अखिले",
    "4093": "विरु",
    "4094": "लगाकर ",
    "4095": "श्रेण",
    "4096": " की एक ",
    "4097": "ाजिक",
    "4098": "नशी",
    "4099": " स्तर पर ",
    "4100": "हो सकती है",
    "4101": "देने ",
    "4102": "दूध",
    "4103": "जिले में ",
    "4104": "उल",
    "4105": "म को ",
    "4106": "व्यवसाय",
    "4107": "आग ",
    "4108": "ों के बीच ",
    "4109": " के मुताबिक ",
    "4110": "ूं",
    "4111": "खात",
    "4112": "जल्द ही ",
    "4113": "उतार",
    "4114": "माई",
    "4115": "ती थी",
    "4116": "रहते हैं",
    "4117": "लिमि",
    "4118": "मतलब ",
    "4119": "छत्तीसगढ़",
    "4120": "सारी ",
    "4121": "इस मौके पर ",
    "4122": "बाबा ",
    "4123": " सिद्ध",
    "4124": "आप अपने ",
    "4125": "ठि",
    "4126": "वहां",
    "4127": "त्येक ",
    "4128": "जरूरत",
    "4129": "आदेश ",
    "4130": "सीमा ",
    "4131": "ेंट ",
    "4132": "फोर्",
    "4133": "ळी ",
    "4134": "निश्चित ",
    "4135": "शिमला ",
    "4136": "रास",
    "4137": "दी थी",
    "4138": "ा कु",
    "4139": " कर लिया ",
    "4140": "लाग",
    "4141": "ति से ",
    "4142": " के सं",
    "4143": "निष्",
    "4144": "वृद्धि ",
    "4145": "जूद",
    "4146": "अधी",
    "4147": "ृत",
    "4148": "डि़",
    "4149": "नहीं कर ",
    "4150": "ँच",
    "4151": "बैठे ",
    "4152": " सहित ",
    "4153": "ा किया",
    "4154": "जेक्ट",
    "4155": "्रिय",
    "4156": "धू",
    "4157": "सांसद",
    "4158": "क्रे",
    "4159": "थो",
    "4160": "निवार",
    "4161": " करनी ",
    "4162": "ताक",
    "4163": "ने के कारण ",
    "4164": "गुस्",
    "4165": "बीर ",
    "4166": "माल ",
    "4167": "नहीं कर सक",
    "4168": "से ही ",
    "4169": "आता है",
    "4170": "आयोजन",
    "4171": "सारे ",
    "4172": "भेजा ",
    "4173": " सुरक्षा ",
    "4174": "ों का क",
    "4175": "भारत का ",
    "4176": " पूर",
    "4177": "मैन ",
    "4178": "मिले ",
    "4179": "गांधी",
    "4180": " करोड़ रुपये",
    "4181": "ने की क",
    "4182": "तहसी",
    "4183": "ड में ",
    "4184": "वक्त",
    "4185": "मिली",
    "4186": " स्थिति ",
    "4187": "वार्ड",
    "4188": "आखिरी ",
    "4189": "लोकप्रिय",
    "4190": " के चलते ",
    "4191": "अब तक",
    "4192": "सेवा",
    "4193": "टी में ",
    "4194": "छे",
    "4195": "जाहि",
    "4196": "शंकर ",
    "4197": "प्रत्या",
    "4198": "पाय",
    "4199": "शिकार ",
    "4200": " केंद्र",
    "4201": "यूपी",
    "4202": "साल में ",
    "4203": "ऐतिहा",
    "4204": "लिस्ट",
    "4205": "नी का ",
    "4206": "बाल ",
    "4207": " सुबह ",
    "4208": "आई है",
    "4209": "एसोसिए",
    "4210": "निगम ",
    "4211": "प्तान",
    "4212": "तरण",
    "4213": "जरिये ",
    "4214": "पहुंचे ",
    "4215": "शर्मा ने ",
    "4216": " सर्व",
    "4217": "वाही ",
    "4218": "बीजेपी",
    "4219": "वसू",
    "4220": "मोहन",
    "4221": "पैसा ",
    "4222": "स्कार",
    "4223": " के प",
    "4224": "लक्ष्म",
    "4225": "विद्यार्थ",
    "4226": "रेप",
    "4227": "योग ",
    "4228": "ंद्रीय ",
    "4229": "नक्स",
    "4230": "निभ",
    "4231": "लोगों से ",
    "4232": "ियां",
    "4233": "ई में ",
    "4234": "दिनों में ",
    "4235": "कुछ",
    "4236": "भारत और ",
    "4237": "माव",
    "4238": "ाब",
    "4239": "ी है और ",
    "4240": "हुआ था",
    "4241": "णार ",
    "4242": "जॉ",
    "4243": "भले ही ",
    "4244": "डॉलर ",
    "4245": "विद्यु",
    "4246": " बैंक",
    "4247": "फोटो",
    "4248": "दी गई है",
    "4249": "ल प",
    "4250": "आर्थिक",
    "4251": "साल की ",
    "4252": "हों ",
    "4253": "डाउनलोड",
    "4254": "होती है ",
    "4255": " सोम",
    "4256": "ध्या ",
    "4257": "आये ",
    "4258": "अब्",
    "4259": "देने का ",
    "4260": " प्रदर्शन",
    "4261": "बांग्ला",
    "4262": "ने एक ",
    "4263": "टेस्ट ",
    "4264": "ग में ",
    "4265": "आलोच",
    "4266": " करा ",
    "4267": "लॉन्च",
    "4268": "देते हैं",
    "4269": "शहीद",
    "4270": "अश्",
    "4271": "ष्टि ",
    "4272": "ाया गया है",
    "4273": "नेशनल ",
    "4274": "रखी ",
    "4275": "शप",
    "4276": "थी लेकिन ",
    "4277": "किसी ",
    "4278": "्स",
    "4279": "चम",
    "4280": "इक",
    "4281": "एक्ट्रे",
    "4282": "दिश",
    "4283": "दस्ता",
    "4284": "टक ",
    "4285": "ज्यो",
    "4286": "तन",
    "4287": "मिक",
    "4288": " कोहली ",
    "4289": "सार्",
    "4290": "जरूरी ",
    "4291": "खोज",
    "4292": "ाने और ",
    "4293": "संस्कृ",
    "4294": "प्रि",
    "4295": "निंग",
    "4296": "ने किया ",
    "4297": "राजा ",
    "4298": " सरकार के ",
    "4299": "र्य ",
    "4300": "उठा",
    "4301": "टूर्ना",
    "4302": "मेह",
    "4303": "ते क",
    "4304": "मार्के",
    "4305": "क्शन ",
    "4306": "ऐलान",
    "4307": "संपत्",
    "4308": "सरकार को ",
    "4309": "सकर ",
    "4310": "र्ष ",
    "4311": " प्रदेश में ",
    "4312": "योग्य",
    "4313": "डेंट",
    "4314": "तेल",
    "4315": "जैसा ",
    "4316": "मिला",
    "4317": "ब्रा",
    "4318": "दस्तावे",
    "4319": "जीवन में ",
    "4320": "त को ",
    "4321": " पोस्ट",
    "4322": "षि",
    "4323": "अरवि",
    "4324": "क क",
    "4325": "बहुत क",
    "4326": "सबसे ज्यादा ",
    "4327": " पूरा ",
    "4328": "शिवि",
    "4329": " परिवार",
    "4330": "समय में ",
    "4331": "टेड",
    "4332": "नेह",
    "4333": "दरा",
    "4334": "जारी क",
    "4335": "बहन",
    "4336": "संयुक्त ",
    "4337": "जन्म ",
    "4338": "सब ",
    "4339": "घर से ",
    "4340": "दिये ",
    "4341": "तल",
    "4342": "जिसकी ",
    "4343": "स्वामी ",
    "4344": "्राष्ट",
    "4345": "ड़क ",
    "4346": " समे",
    "4347": " मही",
    "4348": "एसडी",
    "4349": "लोगों को",
    "4350": "बनाई ",
    "4351": "प्रतिबंध",
    "4352": "जिन्हें ",
    "4353": "कुमार ",
    "4354": "स्टो",
    "4355": "तुरंत ",
    "4356": "शर्मा",
    "4357": "परिणाम",
    "4358": "इनकी ",
    "4359": "े कारण ",
    "4360": "विश्वास",
    "4361": "स्थिति में ",
    "4362": "महत्वपूर्ण",
    "4363": "एन ",
    "4364": "ऐसा कर",
    "4365": "नीत",
    "4366": "दी गई",
    "4367": "चैंप",
    "4368": "हाईकोर्",
    "4369": "ओं पर ",
    "4370": "परिषद",
    "4371": "सदी",
    "4372": " पता ",
    "4373": "ते थे ",
    "4374": "ाया गया",
    "4375": "यांनी ",
    "4376": "निर्माण ",
    "4377": " अब ",
    "4378": "खाते ",
    "4379": "जिंदगी ",
    "4380": " के बि",
    "4381": "रास्ते ",
    "4382": "निरीक्ष",
    "4383": "जान ",
    "4384": "नज़",
    "4385": "ति और ",
    "4386": "जिन्होंने ",
    "4387": "अपनी क",
    "4388": "दलित",
    "4389": "आँ",
    "4390": "रखे ",
    "4391": " का एक ",
    "4392": "आगे बढ़",
    "4393": "दिवसी",
    "4394": "शुल्क ",
    "4395": "लोगों ",
    "4396": "तेल ",
    "4397": "दिन में ",
    "4398": "जाते हैं ",
    "4399": "नयी ",
    "4400": "ाइवे",
    "4401": "जिम्मेदारी ",
    "4402": "अत्य",
    "4403": "तां",
    "4404": "राय ",
    "4405": "वजन",
    "4406": "बुद्ध",
    "4407": "हर क",
    "4408": "इस साल",
    "4409": "क्का ",
    "4410": "संख्य",
    "4411": "केत ",
    "4412": "ते है ",
    "4413": "फोन",
    "4414": "ाली",
    "4415": "फिलहाल ",
    "4416": " की जाएगी",
    "4417": "भ्रष्टाचार",
    "4418": "उद्घा",
    "4419": "गार",
    "4420": "भोपाल",
    "4421": "तरी ",
    "4422": "रिपोर्ट के ",
    "4423": "म है",
    "4424": "प्ले",
    "4425": "सन्",
    "4426": "विभिन्न",
    "4427": " जग",
    "4428": "लगता है कि ",
    "4429": "ियर ",
    "4430": "दरवा",
    "4431": "ालय में ",
    "4432": " परे",
    "4433": "का के ",
    "4434": "वि ",
    "4435": "डक",
    "4436": "वृत्",
    "4437": "सव",
    "4438": "स्मार्ट",
    "4439": "खास",
    "4440": "खतर",
    "4441": "तुम",
    "4442": "लोक ",
    "4443": "दुष्",
    "4444": " मन",
    "4445": "लौट",
    "4446": "गौरतलब है कि ",
    "4447": "भूमिक",
    "4448": "फूल",
    "4449": "से ज्यादा ",
    "4450": "देश को ",
    "4451": "आईए",
    "4452": "नगर",
    "4453": "तमाम ",
    "4454": "पृ",
    "4455": "डिग्री ",
    "4456": "सुबह",
    "4457": "ार से ",
    "4458": "पैसे ",
    "4459": "तस्वीर ",
    "4460": "ें और ",
    "4461": "ने को",
    "4462": "पीट",
    "4463": "आईसी",
    "4464": "बच्चों को ",
    "4465": "ये भी ",
    "4466": " स्था",
    "4467": "डिया ",
    "4468": "उतर",
    "4469": "एक प",
    "4470": "हो रहा है",
    "4471": "मुद्दे पर ",
    "4472": "ा करे",
    "4473": "ंख",
    "4474": " समर्थ",
    "4475": "मुफ्",
    "4476": "शादी ",
    "4477": "खुल",
    "4478": "मरा",
    "4479": "पहु",
    "4480": "उनमें ",
    "4481": "ाया था",
    "4482": "फिल्म में ",
    "4483": "लगाई ",
    "4484": "जिसके बाद ",
    "4485": "ल्स ",
    "4486": "होंगे ",
    "4487": "ने इस ",
    "4488": "देवी",
    "4489": "ऑपरे",
    "4490": "ठो",
    "4491": "निवास",
    "4492": "फाइनल में ",
    "4493": "जम्मूकश्मी",
    "4494": "नकार",
    "4495": "लंद",
    "4496": "िंग ",
    "4497": "अक्टूब",
    "4498": "ाओं को ",
    "4499": "पूछताछ",
    "4500": " सोच",
    "4501": "मौत ",
    "4502": "पोर्ट",
    "4503": "बिक",
    "4504": "ारोबार",
    "4505": "खंड ",
    "4506": "ाने वाल",
    "4507": "लंघ",
    "4508": "उसके बाद ",
    "4509": "जंग",
    "4510": " हुए",
    "4511": "टेली",
    "4512": "ों में भी ",
    "4513": "सेवा ",
    "4514": " कर्",
    "4515": "धारा ",
    "4516": " कारण",
    "4517": " सीमा ",
    "4518": "हैं जो ",
    "4519": "एजेंसी ",
    "4520": " कोई भी ",
    "4521": "ीप",
    "4522": " करने वाली ",
    "4523": "प्रकाश ",
    "4524": "आदित्य",
    "4525": "शक्ति ",
    "4526": "शाम ",
    "4527": "घूम",
    "4528": "खड़े ",
    "4529": "दुनिया के ",
    "4530": "िलोमीटर ",
    "4531": "नारा",
    "4532": "ए गए ",
    "4533": " सेवा",
    "4534": "झु",
    "4535": "आनंद",
    "4536": "टौ",
    "4537": " के अ",
    "4538": "ब्या",
    "4539": "दिशा ",
    "4540": "जता",
    "4541": "यात",
    "4542": "महिल",
    "4543": " बैठ",
    "4544": "स्तर ",
    "4545": "सत्",
    "4546": "खाली ",
    "4547": "कुल",
    "4548": "ों के अनुसार ",
    "4549": "ांत",
    "4550": "नहीं हैं",
    "4551": "कों ने ",
    "4552": "खिल",
    "4553": "ज्यादातर ",
    "4554": "नरेंद्र मोदी",
    "4555": "अपे",
    "4556": " से भी ",
    "4557": " बो",
    "4558": "मौत हो गई",
    "4559": "एंगे",
    "4560": " की मांग",
    "4561": "सफल ",
    "4562": "स्ती",
    "4563": "रहती है",
    "4564": "सब्",
    "4565": "चोट",
    "4566": "इंडियन ",
    "4567": " के लिये ",
    "4568": "ाओं में ",
    "4569": "मशी",
    "4570": "रूक",
    "4571": "मनुष",
    "4572": " कर लिया है",
    "4573": "माने ",
    "4574": "क्रो",
    "4575": "ल्ल",
    "4576": "चार्य",
    "4577": "तरह के ",
    "4578": " की अ",
    "4579": "न है",
    "4580": "टिंग ",
    "4581": "आवश्यक ",
    "4582": "फंड",
    "4583": "कल ",
    "4584": "एटी",
    "4585": "विज्ञाप",
    "4586": "दिन पहले ",
    "4587": "भारतीय जनता ",
    "4588": " स्कूल ",
    "4589": " क्षेत्र में ",
    "4590": "उल्लंघ",
    "4591": "जाने पर ",
    "4592": "यह भी क",
    "4593": "रजि",
    "4594": "जाल",
    "4595": "रहेंगे",
    "4596": "तैनात",
    "4597": "बिक्र",
    "4598": "्यात ",
    "4599": "एप्",
    "4600": "टीम को ",
    "4601": "ढे",
    "4602": " संस्कृ",
    "4603": "मौसम",
    "4604": "ध्यान",
    "4605": " प्रदेश के ",
    "4606": " परियोज",
    "4607": " कर्मचारी ",
    "4608": " प्राप्त",
    "4609": "गुजरात ",
    "4610": " किया गया था",
    "4611": "नेटवर्",
    "4612": "परीक्षा ",
    "4613": "क्षण",
    "4614": "बैठक",
    "4615": "तीनों ",
    "4616": "गृह",
    "4617": "न्ना ",
    "4618": " आ",
    "4619": " रहा है",
    "4620": "ठीक",
    "4621": "दिक्क",
    "4622": "ने से पहले ",
    "4623": "जाता है कि ",
    "4624": "े काम",
    "4625": "ा है तो ",
    "4626": "लड़क",
    "4627": "लिक ",
    "4628": "नीति",
    "4629": "ी का",
    "4630": "एक्सप्रे",
    "4631": "जाएगी ",
    "4632": "हार्",
    "4633": "डाल ",
    "4634": "षे",
    "4635": "अंतरराष्ट्रीय",
    "4636": "सत्ता ",
    "4637": "ऊर्जा ",
    "4638": "एसएस",
    "4639": "पश्चिम ",
    "4640": "गुणव",
    "4641": "र्स",
    "4642": "मैं क",
    "4643": "रहेगी",
    "4644": "डॉक्टर ",
    "4645": "सचिव",
    "4646": "ध्यक्ष",
    "4647": "मती ",
    "4648": "हिस्से",
    "4649": "जा सकती है",
    "4650": "चेहरे ",
    "4651": "था लेकिन ",
    "4652": " की वजह से ",
    "4653": " कहा कि",
    "4654": "अली ",
    "4655": "वजह",
    "4656": "आसानी से ",
    "4657": "षद ",
    "4658": "भ्रष्टाचार ",
    "4659": "सिर्फ",
    "4660": "सकता है",
    "4661": "बे ",
    "4662": "अस्पताल ",
    "4663": "ऊदी ",
    "4664": "ांची ",
    "4665": "अरुण",
    "4666": " सम्मान",
    "4667": "प्रश्",
    "4668": " के बारे ",
    "4669": " मंदि",
    "4670": "नोटिस ",
    "4671": "शोर ",
    "4672": "गंग",
    "4673": "रद्द",
    "4674": "प्रधानमंत्र",
    "4675": "हो रही है",
    "4676": "उस समय ",
    "4677": "उन्हें क",
    "4678": "कड़",
    "4679": "सुधार",
    "4680": "दिलच",
    "4681": " प्राप्त ",
    "4682": "हैं लेकिन ",
    "4683": "मामला दर्ज",
    "4684": " प्रदेश ",
    "4685": " सी ",
    "4686": "ाओं के ",
    "4687": "बाग",
    "4688": "हिक ",
    "4689": "अमेरिका ",
    "4690": "दुख",
    "4691": "गार ",
    "4692": "गल ",
    "4693": "इंच",
    "4694": "जाने से ",
    "4695": " की बात ",
    "4696": "ली का ",
    "4697": "णाल",
    "4698": "पहच",
    "4699": "अरब ",
    "4700": "न को",
    "4701": "ाया जाता है",
    "4702": "शुक्रवार ",
    "4703": "प्रेम",
    "4704": "गई और ",
    "4705": "वय",
    "4706": " साल ",
    "4707": "हथिय",
    "4708": "रोहित ",
    "4709": "भरा ",
    "4710": "बातें ",
    "4711": "आम आदमी ",
    "4712": "ा क्योंकि ",
    "4713": "हिरास",
    "4714": "रहे थे ",
    "4715": "टूर्नामेंट",
    "4716": "प्रस्तु",
    "4717": "युक्त",
    "4718": "फॉर्म",
    "4719": "जाय ",
    "4720": "ी कोई ",
    "4721": "औस",
    "4722": " पुलिस",
    "4723": "आकर्ष",
    "4724": "दास ",
    "4725": "लाकर ",
    "4726": "मन में ",
    "4727": " जिसका ",
    "4728": "शो ",
    "4729": "र्मचारी ",
    "4730": "अह",
    "4731": "गिरावट ",
    "4732": "देश का ",
    "4733": " सिर्फ",
    "4734": "मरीज",
    "4735": "विकल्प",
    "4736": "प्रभाव",
    "4737": "प्रदर्श",
    "4738": "ियन",
    "4739": "ंदा ",
    "4740": "ात्कार",
    "4741": "टेल ",
    "4742": "आगे क",
    "4743": "सामना करना पड़",
    "4744": "मंजूरी ",
    "4745": "बढ",
    "4746": "उत्तराखंड",
    "4747": "डब्ल",
    "4748": "सम्म",
    "4749": "नियुक्त",
    "4750": " सही ",
    "4751": "फ्रें",
    "4752": "हस्त",
    "4753": "मिक ",
    "4754": "हिन्दू",
    "4755": "नोटबंद",
    "4756": "एक साल",
    "4757": "नई दिल्ली",
    "4758": "बाकी ",
    "4759": "राजनीतिक",
    "4760": "स्कूल ",
    "4761": " की जानकारी ",
    "4762": "सहम",
    "4763": "देंगे",
    "4764": "नये ",
    "4765": "प्रक्रिया ",
    "4766": " करने और ",
    "4767": "होने पर ",
    "4768": "बौ",
    "4769": "दक्षिण अफ्री",
    "4770": " कुल",
    "4771": " हासिल",
    "4772": "हालत ",
    "4773": "ह के ",
    "4774": "में कै",
    "4775": "्र में ",
    "4776": "वर्ल्ड",
    "4777": "ामुळे ",
    "4778": "ओवर में ",
    "4779": "ियाँ",
    "4780": " पूर्व ",
    "4781": "मरा ",
    "4782": "शुरू हो",
    "4783": "र किया ",
    "4784": "जाति ",
    "4785": "अधीक्ष",
    "4786": "न्स ",
    "4787": "वर्षीय ",
    "4788": "दिमा",
    "4789": "भेद",
    "4790": "धमकी ",
    "4791": " महिला",
    "4792": "विजय ",
    "4793": "यह कह",
    "4794": "ामा ",
    "4795": " पार्",
    "4796": "जमान",
    "4797": "ारोबार ",
    "4798": "ीन",
    "4799": " पाठ",
    "4800": "चेताव",
    "4801": "शुरुआत ",
    "4802": " सरकार की ",
    "4803": "होता ",
    "4804": "जाए तो ",
    "4805": "किल",
    "4806": "हूर ",
    "4807": " सकते हैं ",
    "4808": "ा कै",
    "4809": "अनुमान",
    "4810": "द्वि",
    "4811": "फैल",
    "4812": "बाय",
    "4813": "इसके लिए",
    "4814": "सुनी",
    "4815": "ट्रि",
    "4816": "हरि",
    "4817": "शायद",
    "4818": "चित",
    "4819": "विश्ले",
    "4820": "बढ़ो",
    "4821": " पानी ",
    "4822": "वर्मा ",
    "4823": "तमिल",
    "4824": "अल्",
    "4825": "ों को लेकर ",
    "4826": "नियम ",
    "4827": "आखिर ",
    "4828": "गये",
    "4829": "इंसान",
    "4830": "वजनिक ",
    "4831": "क्ट ",
    "4832": "दोबारा ",
    "4833": "हो तो ",
    "4834": " करने के बाद ",
    "4835": "नाई ",
    "4836": "ज का ",
    "4837": "दूरी ",
    "4838": "ुक्त ",
    "4839": "आज के ",
    "4840": "तों में ",
    "4841": " से ज्यादा ",
    "4842": "ामि",
    "4843": "गयी है",
    "4844": "अंतर्गत ",
    "4845": "टाई",
    "4846": "सी का ",
    "4847": "उस पर ",
    "4848": "अंजाम ",
    "4849": "ना भी ",
    "4850": "आया",
    "4851": "जरूरी है",
    "4852": "अभिने",
    "4853": "स्ट्री",
    "4854": "विपक्षी ",
    "4855": "बांध",
    "4856": "अभियान ",
    "4857": "ी कु",
    "4858": " समझौ",
    "4859": "ानु",
    "4860": "च्चे ",
    "4861": "डिजा",
    "4862": " संस्थान",
    "4863": "ा के लिए ",
    "4864": "चौह",
    "4865": "घोषणा की ",
    "4866": "देते हुए",
    "4867": "स्वीकार",
    "4868": "फां",
    "4869": "िये",
    "4870": "दाखिल",
    "4871": "न्तु ",
    "4872": "्रवाई ",
    "4873": "अंध",
    "4874": "तियोगि",
    "4875": " करता है ",
    "4876": "घायल हो ",
    "4877": "मुद्दा ",
    "4878": "विवाह",
    "4879": "ूबर ",
    "4880": "लड़की ",
    "4881": "गिर ",
    "4882": "ड़ में ",
    "4883": "मिता",
    "4884": "हिसाब से ",
    "4885": "हना है कि",
    "4886": "क स",
    "4887": "आबाद",
    "4888": "ों को भी ",
    "4889": "थे कि ",
    "4890": "फिलहाल",
    "4891": " बात",
    "4892": "ेय",
    "4893": "अनिल",
    "4894": "िर",
    "4895": "ियो",
    "4896": "डिजि",
    "4897": "झारखंड",
    "4898": "ध्य ",
    "4899": "फसल",
    "4900": " हो सकता है",
    "4901": "बान",
    "4902": "टीम के ",
    "4903": "घुस",
    "4904": "पेट्रोल",
    "4905": " ही क",
    "4906": "वर्ष की ",
    "4907": "भी कर ",
    "4908": " हो गया है",
    "4909": "दिया और ",
    "4910": "हमला ",
    "4911": "ों से क",
    "4912": "वाही",
    "4913": "हरे",
    "4914": "सोशल मीडिया पर ",
    "4915": "रही थी ",
    "4916": "धार्मिक ",
    "4917": "ॉले",
    "4918": " से लेकर ",
    "4919": "घर पर ",
    "4920": "पल ",
    "4921": "इस बारे में ",
    "4922": "निस",
    "4923": "्रॉ",
    "4924": "टाय",
    "4925": "ियों के लिए ",
    "4926": "पोरे",
    "4927": "ने बताया कि",
    "4928": "वास्तव में ",
    "4929": "दौर में ",
    "4930": "क्के ",
    "4931": "डब्ल्यू",
    "4932": "घर के ",
    "4933": "यह एक ",
    "4934": "सन",
    "4935": " बहुत ",
    "4936": "उद्य",
    "4937": "े कार्य",
    "4938": "टर पर ",
    "4939": "जा सके",
    "4940": "व्यू",
    "4941": "वाताव",
    "4942": "ली है",
    "4943": "ारंभ",
    "4944": "अरब",
    "4945": "कट",
    "4946": "उम्र ",
    "4947": "मित्र",
    "4948": "ानून ",
    "4949": "इंतजार",
    "4950": "ृष्ण",
    "4951": "उद्देश्य",
    "4952": "थोड़",
    "4953": "द्रो",
    "4954": "स्त्र ",
    "4955": "अभी भी ",
    "4956": "ार्थी ",
    "4957": " किया जा सकता है",
    "4958": "फुट",
    "4959": "बरामद",
    "4960": "सम्मेल",
    "4961": "जिद",
    "4962": " साफ",
    "4963": "होते हैं",
    "4964": "प्रकार ",
    "4965": "धिक ",
    "4966": "बीआई ",
    "4967": "फ़ ",
    "4968": "दीप ",
    "4969": " करना है",
    "4970": "वृद्धि",
    "4971": "दिशा में ",
    "4972": "निकाल ",
    "4973": "मोदी ने ",
    "4974": " करेगा ",
    "4975": "हमले",
    "4976": "ब्ला",
    "4977": "हारी ",
    "4978": " का आयोजन",
    "4979": "ज को ",
    "4980": "ृत ",
    "4981": "शनिवार ",
    "4982": "न्यायाधी",
    "4983": "आधु",
    "4984": "नों में ",
    "4985": "टैक्स ",
    "4986": "मधु",
    "4987": "धीरे",
    "4988": "दली",
    "4989": "निरा",
    "4990": "हफ्ते ",
    "4991": "किंग ",
    "4992": "जत",
    "4993": "ना को ",
    "4994": " किया था ",
    "4995": "सुख",
    "4996": "टेड ",
    "4997": "फेसबुक",
    "4998": "ती की ",
    "4999": " करता "
  },
  "merges": {
    " |क": " क",
    "े| ": "े ",
    "ी| ": "ी ",
    "ा| ": "ा ",
    "र| ": "र ",
    "ं| ": "ं ",
    " क|े ": " के ",
    "ह|ै": "है",
    "म|े": "मे",
    "्|र": "्र",
    " |स": " स",
    "ा|र": "ार",
    "मे|ं ": "में ",
    "ो| ": "ो ",
    "ा|न": "ान",
    "्|य": "्य",
    "न|े ": "ने ",
    "ि|य": "िय",
    " क|ी ": " की ",
    " |प": " प",
    "र|्": "र्",
    "ा|ल": "ाल",
    "क| ": "क ",
    "स|्": "स्",
    "न| ": "न ",
    "ो|ं": "ों",
    "त| ": "त ",
    " क|ो ": " को ",
    "स|े ": "से ",
    "ि| ": "ि ",
    "न|े": "ने",
    "स| ": "स ",
    "ा| क": "ा क",
    "औ|र ": "और ",
    "व|ि": "वि",
    "क|्": "क्",
    "ि|ल": "िल",
    "ा |है": "ा है",
    "र|ा": "रा",
    "ए| ": "ए ",
    " क|ा ": " का ",
    "ा|र ": "ार ",
    "ल|ि": "लि",
    " क|र": " कर",
    "र|ह": "रह",
    "ो|ं ": "ों ",
    "द|े": "दे",
    "ा|य": "ाय",
    "ा|ं": "ां",
    "ा|म": "ाम",
    " |में ": " में ",
    "प|्र": "प्र",
    "ा|त": "ात",
    "भ|ी ": "भी ",
    " |ह": " ह",
    "ि|क": "िक",
    "ह|ी": "ही",
    "ा|द": "ाद",
    "ल|े": "ले",
    "ड|़": "ड़",
    "ल| ": "ल ",
    "ई| ": "ई ",
    "न|्": "न्",
    "ं|ग": "ंग",
    " स|े ": " से ",
    "स|क": "सक",
    "ह| ": "ह ",
    "न|ा ": "ना ",
    "ह|ु": "हु",
    "ी| क": "ी क",
    "ो|ग": "ोग",
    "त|े ": "ते ",
    "त|्": "त्",
    "िय|ा ": "िया ",
    "म| ": "म ",
    "ी |है": "ी है",
    "न|ि": "नि",
    "म|ु": "मु",
    "प|र ": "पर ",
    "व|ा": "वा",
    "ल|ा": "ला",
    "ं|द": "ंद",
    "त|ा ": "ता ",
    "न|ही": "नही",
    "े| क": "े क",
    "न|ा": "ना",
    "स|ा": "सा",
    " |ज": " ज",
    "अ|प": "अप",
    "क्|ष": "क्ष",
    " के |लि": " के लि",
    "त|ि": "ति",
    "्|ट": "्ट",
    "है|ं": "हैं",
    " |ब": " ब",
    "त|्र": "त्र",
    " |म": " म",
    "ल|े ": "ले ",
    "त|ा": "ता",
    " प|्र": " प्र",
    "द|ि": "दि",
    "नही|ं ": "नहीं ",
    "क|र ": "कर ",
    "ए|क ": "एक ",
    "र|ि": "रि",
    "ह|ा": "हा",
    " क|ो": " को",
    "ल|ग": "लग",
    "ह|ो": "हो",
    "ु|र": "ुर",
    "व|ाल": "वाल",
    "ह|ी ": "ही ",
    "इ|स": "इस",
    "भ|ा": "भा",
    " प|र ": " पर ",
    "ग|य": "गय",
    "इ|स ": "इस ",
    "दे|श": "देश",
    " क|र ": " कर ",
    " के |ब": " के ब",
    "द|्": "द्",
    "ान| ": "ान ",
    "न|ी ": "नी ",
    "म|ा": "मा",
    "ि|त": "ित",
    "िय|ा": "िया",
    " के लि|ए ": " के लिए ",
    "ने| क": "ने क",
    "ब| ": "ब ",
    "क|ि": "कि",
    "व|ार": "वार",
    "स|ं": "सं",
    "त|ी": "ती",
    "न्|ह": "न्ह",
    "आ|प": "आप",
    "व| ": "व ",
    "ं| क": "ं क",
    "न|क": "नक",
    "ं|ड": "ंड",
    "र|ो": "रो",
    "ब|ा": "बा",
    "त|ो ": "तो ",
    "र|ी": "री",
    "ज|ि": "जि",
    "ट| ": "ट ",
    "रा|ज": "राज",
    "र|े": "रे",
    "त|ा है": "ता है",
    "्|म": "्म",
    "स|ी ": "सी ",
    "य| ": "य ",
    "क|ार": "कार",
    " क|ि ": " कि ",
    "उ|न्ह": "उन्ह",
    "सा|थ": "साथ",
    "ा क|ि ": "ा कि ",
    "र|ी ": "री ",
    "ह|ि": "हि",
    "ज|ा": "जा",
    "र| क": "र क",
    "ल|ी ": "ली ",
    "है|ं ": "हैं ",
    "स|ी": "सी",
    "ों| को ": "ों को ",
    "ल|्": "ल्",
    "े|ं ": "ें ",
    "भ|ार": "भार",
    "स|म": "सम",
    "स्|थ": "स्थ",
    "अ|ध": "अध",
    "प|ा": "पा",
    "ग|्र": "ग्र",
    "प|ू": "पू",
    "ों| के ": "ों के ",
    "स्|त": "स्त",
    "न|ी": "नी",
    "ज|ा ": "जा ",
    "अ|न": "अन",
    "ज|ी": "जी",
    " |और ": " और ",
    "श|्": "श्",
    "स्|ट": "स्ट",
    "ं|त्र": "ंत्र",
    "स|ि": "सि",
    "ल|ोग": "लोग",
    "ों |में ": "ों में ",
    "स|र": "सर",
    "सक|े ": "सके ",
    "उ|नक": "उनक",
    "य|ह ": "यह ",
    "्य|ा": "्या",
    " क|ि": " कि",
    "ज|ान": "जान",
    "व|े": "वे",
    "प|ु": "पु",
    "र|ू": "रू",
    "ि|त ": "ित ",
    "च|ु": "चु",
    "ज| ": "ज ",
    "ों| की ": "ों की ",
    "व|र्": "वर्",
    "च|ा": "चा",
    "म|ार": "मार",
    " स|्": " स्",
    "श|ि": "शि",
    "च|्": "च्",
    "ल|ा ": "ला ",
    "प|ी": "पी",
    "ट|ी": "टी",
    "अप|ने ": "अपने ",
    "मे|ं क": "में क",
    "क|े ": "के ",
    "प|ह": "पह",
    "स|े": "से",
    "ण| ": "ण ",
    "व|ी": "वी",
    "थ|ा": "था",
    "प|्": "प्",
    "ढ|़": "ढ़",
    "थ|ा ": "था ",
    "म|िल": "मिल",
    "ने क|ह": "ने कह",
    "द|ी ": "दी ",
    "क|ा": "का",
    "रह|े ": "रहे ",
    "म|ान": "मान",
    " स|ं": " सं",
    "य|ा ": "या ",
    "म|ै": "मै",
    "ह|ो ": "हो ",
    "ाद| ": "ाद ",
    "ं|ट": "ंट",
    "ल|ी": "ली",
    "स|ु": "सु",
    "ि|क ": "िक ",
    "य|े ": "ये ",
    "त|ी है": "ती है",
    "म|ह": "मह",
    "द| ": "द ",
    "ष|्ट": "ष्ट",
    "उन्ह|ों": "उन्हों",
    "र|ु": "रु",
    "त|ि ": "ति ",
    "ए|क": "एक",
    "र |में ": "र में ",
    "ब|ी": "बी",
    "द|ू": "दू",
    "ग|ा": "गा",
    "ज|ात": "जात",
    "्य|ा ": "्या ",
    "म|ो": "मो",
    "क|ार ": "कार ",
    "ले|कि": "लेकि",
    "ं|च": "ंच",
    "्य| ": "्य ",
    "र्|म": "र्म",
    "म|ंत्र": "मंत्र",
    " क|िया ": " किया ",
    "द|ो": "दो",
    "द|ी": "दी",
    "ज|न": "जन",
    "ने |वाल": "ने वाल",
    "ब|े": "बे",
    "त|ी ": "ती ",
    "िल|्": "िल्",
    " के |साथ": " के साथ",
    "िल|ा": "िला",
    "्र|ी": "्री",
    " ह|ो": " हो",
    "म|्": "म्",
    "ार|ी ": "ारी ",
    "ु|छ": "ुछ",
    "क|े": "के",
    " कर|ने": " करने",
    "क|ि ": "कि ",
    " |अ": " अ",
    " स|ि": " सि",
    "उ|प": "उप",
    "ज|े": "जे",
    "ार|्": "ार्",
    "ार|्य": "ार्य",
    "म|ि": "मि",
    "ते |हैं": "ते हैं",
    "ं|प": "ंप",
    "दे|ख": "देख",
    "मु|ख": "मुख",
    "ान|े": "ाने",
    "ब|्": "ब्",
    "लेकि|न ": "लेकिन ",
    "च| ": "च ",
    "ाल| ": "ाल ",
    "ब|त": "बत",
    "व|्य": "व्य",
    "ं|ध": "ंध",
    "ाय|ा ": "ाया ",
    "द|र्": "दर्",
    "र|े ": "रे ",
    "हा|ं ": "हां ",
    "म|ी": "मी",
    "ग|ु": "गु",
    "थ|ी": "थी",
    "फ|ि": "फि",
    "ल|ो": "लो",
    "ध|ान": "धान",
    "र|ा ": "रा ",
    "त|क ": "तक ",
    "है| ": "है ",
    "र|ख": "रख",
    "ट|्र": "ट्र",
    "ं|क": "ंक",
    "स|ा ": "सा ",
    "ान|े ": "ाने ",
    "ं|ब": "ंब",
    "व|ा ": "वा ",
    "क|्र": "क्र",
    "द|ु": "दु",
    "म|ौ": "मौ",
    "ट|े": "टे",
    "िय|ा है": "िया है",
    "स|ू": "सू",
    "त|े": "ते",
    "अन|ु": "अनु",
    "इ|सके ": "इसके ",
    "य|ोग": "योग",
    "रह|ा है": "रहा है",
[...]
